, 246380
. 206794
di 53719
in 46133
che 45521
die 42886
und 36553
e 34554
" 29736
der 29197
è 28227
ist 27897
la 26130
un 25726
il 24380
das 23564
a 22078
zu 21860
es 20632
ich 20452
wir 19039
: 19002
per 18905
? 17832
una 16606
Sie 15860
sie 15529
non 15306
Und 15135
ein 14522
von 14478
E 13827
eine 13787
dass 13755
nicht 13707
le 12574
den 12229
i 12003
l' 11457
mit 10925
da 10731
sono 10699
si 10612
auf 10048
Ich 9876
-- 9533
del 9493
sich 9211
wie 9169
questo 9142
come 9056
sind 8894
haben 8873
con 8722
- 8474
più 8369
man 8293
für 8212
so 7839
an 7538
della 7458
Das 7414
war 7165
was 6909
als 6805
Es 6791
um 6780
ci 6567
se 6291
dem 6217
diese 6194
ha 6165
er 6070
al 5982
wenn 5842
im 5818
einen 5713
Wir 5648
nel 5641
o 5527
♫ 5411
ma 5400
uns 5313
hat 5287
werden 5147
' 5097
cosa 5077
des 5069
können 5015
über 4942
lo 4940
molto 4937
aus 4904
questa 4857
Ma 4855
oder 4747
ho 4718
dei 4588
hier 4578
gli 4576
mi 4429
delle 4419
Aber 4414
kann 4403
aber 4380
einer 4363
auch 4359
sehr 4356
era 4341
wird 4313
Die 4306
einem 4271
alle 4120
abbiamo 4119
anni 4041
cui 4038
essere 3999
nur 3986
– 3985
gibt 3984
alla 3977
loro 3960
Non 3932
dann 3851
persone 3798
fare 3757
perché 3660
sein 3615
also 3586
così 3582
La 3575
habe 3560
anche 3560
quando 3558
mich 3522
Menschen 3506
etwas 3481
sehen 3476
dell' 3467
ad 3462
mondo 3398
In 3375
solo 3325
hanno 3310
tutto 3309
noch 3248
Il 3245
... 3230
su 3206
dieser 3183
cose 3170
tutti 3167
modo 3069
quello 3066
nach 3063
Welt 3036
un' 3006
c' 2857
fatto 2855
Quindi 2838
mir 2833
Wenn 2824
ed 2809
nella 2772
qui 2753
uno 2716
mehr 2706
machen 2668
sia 2618
Also 2611
wirklich 2597
bei 2566
-@@ 2548
queste 2535
! 2534
Questo 2528
Ihnen 2524
questi 2513
vor 2484
parte 2467
wurde 2442
E' 2427
noi 2424
vi 2411
zum 2375
stato 2370
ne 2369
ciò 2354
TED 2345
all' 2341
due 2333
prima 2325
vita 2322
weil 2275
tun 2268
immer 2250
ano 2248
mio 2225
fa 2214
meine 2198
are 2196
am 2180
io 2179
durch 2164
ato 2164
ogni 2156
dieses 2135
Was 2130
Leute 2122
qualcosa 2118
ai 2113
poi 2089
Er 2081
Dinge 2065
mia 2056
in@@ 2052
s 2043
Zeit 2015
ata 2015
diesem 2001
er@@ 1999
ate 1992
altro 1984
viel 1979
dove 1979
keine 1969
hatte 1957
dal 1950
può 1945
sagen 1935
an@@ 1925
; 1919
ora 1912
tempo 1899
diesen 1884
Art 1879
ri@@ 1863
dire 1863
Leben 1857
wissen 1856
einfach 1855
sul 1855
ver@@ 1854
sagte 1843
te 1840
unsere 1829
Jahren 1824
siamo 1819
ati 1801
viele 1800
ihre 1799
müssen 1787
s@@ 1784
bin 1783
eines 1768
me 1768
vedere 1766
jetzt 1763
davvero 1763
zwei 1748
tra 1726
and 1725
ancora 1722
Se 1720
alles 1709
sulla 1709
waren 1705
ando 1691
Der 1687
andere 1685
Ora 1675
é 1671
degli 1662
dies 1652
anderen 1651
sta 1643
würde 1639
L' 1624
wo 1623
mai 1620
grande 1616
ihr 1598
Questa 1588
geht 1586
quel 1574
quella 1571
damit 1567
voi 1550
du 1548
S@@ 1536
Jahre 1534
bis 1530
zur 1530
Wie 1515
Nun 1506
un@@ 1501
ab@@ 1488
anno 1488
muss 1481
gente 1478
dalla 1465
Talk 1462
possiamo 1456
nostro 1451
en@@ 1447
sempre 1438
li 1436
suo 1435
Subtitles 1426
Transcript 1426
dopo 1419
schon 1393
idea 1387
È 1386
quanto 1384
selbst 1383
gut 1377
10 1365
Man 1351
sua 1345
lavoro 1340
all 1335
storia 1334
k@@ 1328
volta 1326
altri 1323
I 1322
möchte 1318
nostra 1318
dort 1317
ti 1313
Sono 1311
tipo 1310
Per 1306
erano 1304
d' 1302
Ed 1301
denn 1299
Perché 1293
ihnen 1288
tre 1287
quindi 1287
detto 1284
Ho 1279
ein@@ 1272
Si 1271
davon 1270
Ci 1266
punto 1266
tutte 1261
aus@@ 1258
gehen 1254
sei 1250
nell' 1250
altra 1243
Geschichte 1237
avere 1235
wieder 1232
vielleicht 1228
Hier 1228
circa 1218
werde 1217
% 1199
mein 1193
proprio 1186
20 1185
Così 1184
Kinder 1170
b@@ 1170
stesso 1164
t@@ 1163
nei 1161
qualche 1160
ganz 1159
senza 1158
tatsächlich 1157
auf@@ 1155
po' 1153
ten 1150
B@@ 1145
problema 1143
könnte 1138
darüber 1137
einige 1136
drei 1134
heute 1134
hatten 1133
kommen 1128
bene 1125
Jahr 1124
nun 1121
ihn 1119
oggi 1117
t 1116
giorno 1116
denke 1113
Abbiamo 1109
de 1102
fuori 1095
gemacht 1090
possono 1088
meno 1085
en 1078
Le 1077
ò 1076
L@@ 1069
o@@ 1069
Come 1069
paar 1067
glaube 1067
P@@ 1064
stata 1063
T@@ 1062
di@@ 1061
ob 1054
wollen 1053
bisogno 1053
nelle 1052
esempio 1051
seine 1043
geben 1043
molti 1038
importante 1033
bambini 1033
Ecco 1024
ar@@ 1020
be@@ 1015
altre 1014
sistema 1014
realtà 1013
genau 1010
An@@ 995
nuovo 994
azione 992
st@@ 988
kommt 986
macht 985
Ver@@ 984
R@@ 982
denen 981
A@@ 980
Diese 978
ung 978
wurden 978
Quando 977
H@@ 976
A 976
mal 972
ent@@ 968
Teil 964
Un 961
g@@ 958
Mi 958
neue 957
nostri 956
ge@@ 954
C@@ 952
via 952
So 951
momento 948
gab 947
dall' 947
weiter 946
vom 945
K@@ 945
finden 945
Ein 943
acqua 943
chi 942
e@@ 941
ale 939
m@@ 938
meiner 937
wäre 937
zeigen 934
Dies 932
D@@ 931
potete 931
negli 926
andare 921
d@@ 920
ja 919
F@@ 917
al@@ 916
ero 916
Beispiel 914
weiß 913
unserer 912
“ 911
Problem 909
h@@ 905
p@@ 904
tecnologia 903
will 901
Grazie 900
credo 899
sch@@ 896
dazu 896
N@@ 895
sondern 895
visto 894
penso 894
l@@ 891
kein 890
M@@ 889
volte 889
denken 888
sieht 887
milioni 886
voglio 884
fine 883
or@@ 882
f@@ 881
gerade 875
n@@ 875
dafür 868
Millionen 866
no 862
ische 860
einmal 860
alcuni 860
stanno 857
stiamo 855
unter 854
Prozent 851
fosse 847
fu 846
50 845
passiert 844
aveva 844
r@@ 842
mentre 842
Idee 840
quale 840
lui 840
z@@ 839
bekommen 838
zurück 835
Frage 835
warum 833
a@@ 833
Eine 830
specie 829
E@@ 826
parlare 826
zwischen 825
i@@ 825
sarebbe 825
sagt 824
dice 822
lassen 821
Tag 816
C' 816
Als 814
am@@ 813
G@@ 812
Una 812
erste 811
primo 811
sogar 808
ohne 808
es@@ 807
Arbeit 806
Da 804
nichts 803
quelle 803
jeder 801
creare 799
würden 798
100 796
el@@ 795
casa 795
avete 795
nie 791
viene 789
verstehen 788
konnte 787
dollari 785
molte 783
ziemlich 782
30 780
verso 780
ganze 779
c@@ 778
forse 777
già 776
qualcuno 776
farlo 775
etwa 774
ihren 773
New 773
ava 769
Dollar 769
ino 769
senso 769
capire 769
um@@ 766
während 766
ging 764
sollte 761
stessa 761
letzten 759
pensare 759
ersten 758
on@@ 757
über@@ 755
fino 755
sprechen 754
insieme 753
grandi 751
Bild 750
leben 749
große 749
daran 747
ico 744
u@@ 742
problemi 741
lì 741
interessante 740
va 740
W@@ 739
arbeiten 738
y 735
cervello 735
on 734
allora 734
sapete 733
unser 732
kam 730
at@@ 730
ali 730
dati 730
wollte 729
ischen 729
ore 728
certo 728
natürlich 727
bringen 725
computer 724
città 724
gesehen 722
w@@ 721
ce 720
posto 718
Wasser 716
Lo 716
Africa 714
fanno 714
veramente 713
miei 712
ante 711
vero 711
energia 711
sollten 710
Sch@@ 710
welche 710
persona 708
Ihre 707
Weg 706
de@@ 705
meisten 702
successo 702
nehmen 700
sarà 700
it@@ 698
tutta 698
avuto 697
Sache 696
facendo 695
attraverso 694
Land 693
potrebbe 691
caso 691
stati 689
disse 688
possibile 686
vor@@ 684
abbastanza 683
wichtig 681
dai 681
ungen 678
dobbiamo 678
könnten 677
d 676
Geld 676
domanda 674
Io 672
li@@ 668
meglio 668
ge 666
ica 663
Seite 661
ch@@ 661
kleinen 658
one 658
sten 656
tanto 656
ter 655
dabei 653
[ 653
] 653
ungs@@ 652
spazio 652
Vor@@ 651
quasi 648
progetto 648
Che 647
Beh 647
Dann 646
alcune 646
siano 644
isch 643
arsi 643
15 642
meinem 642
effetti 642
anti 640
ins 639
forma 639
kleine 638
re@@ 636
meinen 636
eigentlich 635
stellen 634
secondo 634
ere 633
's 631
Ende 631
pro 631
quattro 631
nostre 628
Ab@@ 626
ie 626
idee 626
sto 625
vier 622
Oh 622
futuro 622
ab 621
Technologie 621
foto 621
quali 620
Weise 619
Mann 617
semplice 617
Erde 616
sotto 616
avano 616
ihrer 615
lei 615
zusammen 614
darauf 613
piccolo 613
„ 611
2 610
ita 610
mano 610
besser 609
gesagt 608
brauchen 606
dachte 606
Mal 606
doch 606
ihm 606
Menge 605
Ein@@ 605
adesso 605
OK 603
m 602
ol@@ 602
ur@@ 600
zu@@ 600
Denn 599
k 598
York 596
großen 595
uomo 595
chen 594
facciamo 594
gen 593
is@@ 593
y@@ 593
Ja 592
jemand 590
bedeutet 589
USA 588
quelli 587
gruppo 586
weniger 585
ici 585
grado 584
zeigt 583
numero 583
lich 582
Afrika 582
Voglio 581
Poi 578
O@@ 576
perchè 576
Er@@ 575
et@@ 575
pianeta 574
Aus@@ 573
versuchen 573
el 573
Ihr 571
Warum 571
vedete 571
keinen 570
lungo 570
invece 566
niente 566
posso 564
St@@ 562
ete 562
40 561
allen 560
Internet 559
usare 559
ecco 559
far 558
mezzo 558
maggior 558
ganzen 557
Raum 557
ente 557
bi@@ 556
Zukunft 555
avevo 555
trovare 555
ic@@ 554
st 552
Ideen 552
Daten 551
con@@ 551
difficile 551
dalle 549
Im 547
ag@@ 547
Grund 545
ine 544
Nel 544
v@@ 542
luce 542
Cosa 540
sp@@ 538
tr@@ 538
Ok 538
jeden 537
glauben 536
sull' 536
vostro 536
ina 535
agli 535
arlo 534
unseren 533
bauen 533
l 532
azioni 532
I@@ 531
Frau 530
hätte 530
Dank 528
prendere 528
Planeten 527
Ort 526
Person 526
semplicemente 526
ac@@ 525
atore 525
5 524
ern 524
au@@ 524
em 523
ungefähr 522
im@@ 520
liche 520
deve 519
Jetzt 517
In@@ 517
seiner 517
Du 514
ger@@ 511
ito 511
cambiare 511
macchina 509
schaffen 508
funktioniert 507
3 507
heraus 506
Frauen 506
diversi 506
später 505
wenig 505
em@@ 504
per@@ 504
endo 504
Bene 504
immagine 504
gute 503
Wissen 503
suoi 503
heißt 502
com@@ 502
state 502
giorni 502
vielen 501
Kind 501
ende 500
iti 500
mente 500
tratta 500
halten 499
piuttosto 499
unter@@ 498
Probleme 498
seit 498
konnten 497
indem 495
ci@@ 495
Gli 495
design 494
dato 494
libro 494
mi@@ 493
scuola 493
schnell 492
enden 492
sulle 492
significa 491
sa 490
giusto 490
umani 490
vediamo 489
Gehirn 488
wahrscheinlich 487
gi@@ 487
erzählen 486
ono 486
sui 486
Era 486
ter@@ 485
donne 485
corpo 485
jedes 484
genug 484
natura 484
oben 483
vostra 483
Dio 483
livello 482
probabilmente 481
lange 480
cibo 479
giro 479
eigenen 478
CA 478
sembra 478
lichen 477
möglich 477
ap@@ 477
cinque 477
os@@ 476
aria 476
miliardi 476
fast 475
diverse 475
sicher 473
migliore 473
dare 473
società 473
ricerca 473
V@@ 472
India 472
nuova 472
spesso 472
Allora 472
fünf 471
appena 471
costruire 471
dentro 471
Fall 470
ben 469
piccola 469
globale 468
comunità 468
troppo 468
strada 467
Vi 467
vengono 467
durante 467
completamente 467
gegen 466
J@@ 466
avevano 465
possa 465
hin 464
Leuten 464
do 464
allo 464
succede 463
nessuno 463
bisschen 462
helfen 462
sappiamo 462
ken 461
si@@ 461
grazie 461
ation 460
ot@@ 460
pensato 460
terra 460
Nein 459
siete 459
System 458
ca 458
Natur 457
hai 457
iamo 457
Computer 455
co@@ 455
base 455
om@@ 454
nächsten 454
film 454
neuen 452
parole 452
richtig 451
begann 451
ro@@ 451
Stadt 451
tu 451
ragazzi 451
animali 450
stehen 449
ing 449
oft 447
av@@ 447
str@@ 447
Gott 447
gehört 445
Energie 445
as@@ 445
Quello 445
beim 444
aver 444
sagten 443
inizio 443
lernen 442
dello 442
op@@ 441
seinen 441
ad@@ 441
quei 441
pi@@ 440
nutzen 439
euch 439
guerra 439
g 438
amento 438
stessi 438
esperienza 438
vista 438
Mutter 437
ste 437
O 437
Terra 437
enti 436
pubblico 436
Vielen 435
Chris 435
ultimi 435
4 434
ia 434
mercato 434
Questi 434
par@@ 433
Z@@ 433
end 433
eg@@ 433
ini 433
No 433
poco 433
Uniti 433
est@@ 432
Stati 432
risposta 432
Qui 432
Be@@ 431
” 431
oltre 430
vi@@ 429
auto 429
Un@@ 428
Weil 428
lang 427
us@@ 427
man@@ 427
abbia 427
atori 427
alto 427
contro 427
inter@@ 426
Moment 425
nello 425
puoi 425
Milliarden 424
qualsiasi 424
porta 423
gioco 423
jede 422
Design 422
Ha 422
lavorare 422
umano 422
steht 421
storie 421
kennen 420
sapere 420
bambino 420
chiamato 419
paese 419
ä@@ 418
25 418
h 418
avanti 418
Indien 417
verändern 417
piace 417
sah 416
paesi 416
genere 416
interno 416
überall 415
durch@@ 415
reden 415
Form 415
Punkt 415
1 414
ke 414
ti@@ 413
Arten 413
modello 413
ert 412
Penso 412
Okay 411
nen 411
Buch 411
u 411
ut@@ 411
minuti 411
ten@@ 410
là 410
testa 410
scienza 410
fragen 409
ul@@ 409
eb@@ 409
nome 408
weit 407
Minuten 407
re 407
rete 407
unserem 406
hören 406
erst 406
Fragen 406
Siamo 406
indietro 406
der@@ 405
entwickelt 405
iniziato 404
enorme 403
eren 402
paio 402
ene 401
irgendwie 401
cercando 401
possibilità 401
poter 400
capacità 400
conto 400
machte 399
liegt 397
erkennen 397
et 397
to 397
mettere 397
processo 397
12 396
funziona 396
musica 396
dis@@ 395
sì 395
asse 394
nuove 394
ragione 394
mesi 394
occhi 394
Wissenschaft 392
centro 392
bereits 391
br@@ 391
darum 390
nennen 390
ell@@ 390
avo 390
Bilder 389
schauen 389
erreichen 389
video 389
scoperto 389
quest' 389
incredibile 389
spielen 388
sen 388
media 388
potere 388
forza 388
soldi 388
Re@@ 387
arono 387
luogo 387
führen 386
Danke 386
zusammen@@ 385
seinem 385
Schule 385
amo 385
cambiamento 385
gerne 384
arte 384
abile 384
vorrei 384
sage 383
passato 383
Oder 382
ir@@ 380
col 380
her@@ 379
oni 379
madre 379
ischer 378
sviluppo 378
Projekt 376
alt 376
anders 376
Musik 376
j@@ 375
n 375
wer 375
braucht 374
male 374
sc@@ 374
intorno 374
bevor 373
faccio 373
z 372
elle 372
universo 372
anderes 371
DNA 371
fin@@ 371
Sì 371
differenza 371
causa 371
Mit 370
reale 370
immagini 370
periodo 370
creato 370
musste 368
ma@@ 368
hin@@ 368
U@@ 368
einigen 367
eh@@ 367
HIV 367
Mädchen 367
ei@@ 367
Körper 367
Queste 367
sentito 367
Meine 366
Geschichten 366
armi 366
namens 365
Antwort 365
Al@@ 365
America 365
famiglia 365
Gruppe 364
Möglichkeit 364
Video 364
Gebäude 363
200 363
ette 363
entwickeln 362
Potete 362
arci 362
ger 361
gleich 361
Dieses 361
seconda 361
piccoli 361
tuo 361
weg 360
dich 360
donna 360
60 359
stava 359
mostra 359
modi 358
Di 358
devo 358
quell' 358
ani 357
benutzen 357
ta 357
vogliamo 357
2@@ 356
zi@@ 356
darin 356
ambiente 356
particolare 356
ieren 355
ihrem 355
campo 355
bar 354
11 354
sechs 354
Europa 354
einzige 354
messo 354
trovato 354
je 353
ve 353
diventare 353
parti 353
diverso 353
vuole 353
chiama 353
gar 352
struttura 352
verschiedene 351
oc@@ 351
Google 350
Universum 350
nulla 350
Sachen 349
los 348
Dingen 348
alen 347
fer@@ 347
menschlichen 347
ari 347
Al 346
Für 346
besonders 346
avrebbe 346
informazioni 346
gel@@ 345
og@@ 345
buona 345
zurück@@ 344
amente 344
vicino 344
6 343
serie 343
metri 343
verschiedenen 341
bewegen 341
18 341
att@@ 341
den@@ 340
her 340
sacco 340
guardare 340
Kopf 339
questione 339
Licht 338
Film 338
versucht 338
esattamente 338
hätten 337
arrivare 337
ovviamente 337
ità 337
petrolio 337
sopra 336
Mein 335
soll 335
e-@@ 335
co 335
Ciò 335
domande 335
Auf@@ 334
fr@@ 334
all@@ 334
Lebens 334
nuovi 334
Possiamo 334
iert 333
innerhalb 333
chi@@ 333
amici 333
Auf 332
Kindern 331
vorstellen 331
Gesellschaft 331
besten 331
migliaia 331
dovuto 331
Tutti 331
Über@@ 330
mar@@ 330
Informationen 330
men 330
ni@@ 330
as 329
posti 329
secolo 329
ändern 328
qu@@ 327
groß 327
Familie 327
unten 327
hoch 327
osa 327
nämlich 326
bl@@ 326
uso 326
sue 326
gleichen 325
dir 325
Sapete 325
zwar 324
getan 324
mit@@ 324
essen 324
jedem 324
Hand 324
ra@@ 324
uomini 324
wegen 323
Augen 323
80 323
umana 323
saranno 323
beiden 322
stellt 322
vivere 322
isches 321
unglaublich 321
car@@ 321
Lage 320
economia 320
parla 320
ak@@ 319
stelle 319
ana 319
tua 319
tipi 319
Stunden 318
wohl 317
ei 317
erhalten 317
otto 317
portare 317
piedi 317
cominciato 317
ziehen 316
studenti 316
superficie 316
Mar@@ 315
and@@ 315
kaufen 314
treffen 314
.@@ 314
ig@@ 314
su@@ 314
os 314
fi@@ 314
età 314
chiesto 314
or 313
verwenden 313
8 313
gen@@ 313
ose 313
sola 313
fondo 313
beginnen 312
cercare 312
prodotto 312
amore 312
Stück 311
herum 311
aller 311
Glück 311
dovrebbe 311
morte 311
David 310
bringt 310
kamen 309
ett@@ 309
verändert 309
intero 309
dicono 309
ens 308
ori 308
Noi 308
figli 308
gest@@ 307
l’ 307
ottenere 307
eins 306
Tiere 306
eher 306
kl@@ 306
sole 306
aspetto 306
parola 306
führt 305
Ch@@ 305
ing@@ 305
arla 305
mie 304
opportunità 304
überhaupt 303
lässt 303
ü@@ 303
teoria 303
500 302
metà 302
nach@@ 301
Um 301
Dieser 301
ser@@ 301
portato 301
resto 301
weitere 300
Sprache 300
piu 300
popolazione 300
arli 300
schwer 299
klar 299
Publikum 299
menschliche 299
Dunque 299
Haus 298
pr@@ 298
preso 298
cuore 298
Perciò 298
padre 298
po@@ 297
guardate 297
unico 297
Di@@ 296
Entwicklung 296
nächste 296
Sinn 296
trova 296
tes 295
ler 295
gleiche 295
tras@@ 295
parlato 295
situazione 295
eln 294
welches 294
ra 294
Credo 294
corso 294
fatta 294
allem 293
alten 293
ese 293
migliori 293
diamo 293
programma 293
ultimo 293
cellule 293
gebaut 292
Länder 292
tut 292
ek@@ 292
fahren 292
gern 292
gran 292
primi 292
attività 292
be 291
pl@@ 291
sal@@ 291
ber@@ 291
stanza 291
p 290
importanti 290
governo 290
dietro 290
Nicht 289
fand 289
Gefühl 289
riguardo 289
Tutto 289
worden 288
Auto 288
na 288
Kunst 288
Con 288
basso 288
sen@@ 287
Hilfe 287
ec@@ 287
recht 287
interessant 287
at 287
Vielleicht 287
schen 287
este 287
informazione 287
tecnologie 287
pratica 287
Ist 286
ire 286
Uno 286
nimmt 285
Ziel 285
Grunde 285
Anche 285
rispetto 285
Hanno 285
f 284
ris@@ 284
so@@ 284
Dobbiamo 284
quantità 284
Wort 283
AIDS 283
manchmal 283
risultato 283
letzte 282
Liebe 282
Doch 282
se@@ 282
ant@@ 282
scritto 282
dovremmo 282
parlando 282
vogliono 282
comune 282
mare 282
lato 282
chiamata 282
movimento 282
ker 281
mani 281
motivo 281
almeno 281
sicuro 281
wollten 280
Y@@ 280
dessen 280
bitte 280
China 280
etto 280
vera 280
denaro 280
abilità 280
crescita 280
sette 280
ell 279
Anfang 279
damals 279
eva 279
potuto 279
pensate 279
schreiben 278
cht@@ 278
Vater 278
sistemi 278
settimana 278
pezzo 278
cultura 278
da@@ 277
Str@@ 277
betrachten 277
pro@@ 277
etta 277
potrebbero 277
edificio 277
genommen 276
schön 276
erte 276
oso 276
attenzione 276
sorta 276
Spiel 275
diventa 275
simile 275
sito 275
qualunque 275
Unternehmen 274
ar 274
studio 274
Qu@@ 274
serve 274
valore 274
vostri 274
Cina 274
evoluzione 274
destra 274
vol@@ 273
imparare 273
John 272
Vor 272
mag 272
ok 272
1@@ 272
dico 272
linea 272
oggetto 272
wahr 271
Staaten 271
b 271
stavo 271
eigene 270
7 270
Regierung 270
il@@ 270
avrei 270
nemmeno 270
dagli 270
fatti 270
Zu@@ 269
aff@@ 269
à 269
osi 269
sinistra 269
sociale 269
ellen 268
gt 268
alta 268
piano 268
dicendo 268
Lassen 267
piccole 267
unica 267
deren 266
jedoch 266
Ogni 266
gesch@@ 265
ung@@ 265
fen 265
besteht 265
neu 265
chiamo 265
Unter@@ 264
— 264
Par@@ 264
zione 264
fl@@ 263
teilen 263
sieben 263
obwohl 263
Ar@@ 263
niemand 262
licher 262
mache 261
Alles 261
Li@@ 261
strumenti 261
buon 261
realmente 261
Möglichkeiten 260
falsch 260
Bei 260
bleiben 260
len 260
Erfahrung 260
gl@@ 260
forme 260
ammo 260
macchine 260
usando 260
bar@@ 259
direkt 259
zen 259
mussten 259
wären 259
sterben 259
virus 259
mille 259
solche 258
3@@ 258
of 258
tanti 258
salute 258
naturale 258
Unterschied 257
kurz 257
etti 257
forte 257
facile 257
progetti 257
visione 257
potremmo 257
lösen 256
mo@@ 256
Mo@@ 256
us 256
ationen 256
bel 256
ben@@ 256
sentire 256
comunque 256
cento 256
intera 256
16 255
zweite 255
ru@@ 255
Eltern 255
oceano 255
chten 254
eben 254
passieren 254
geb@@ 254
volevo 254
erà 254
controllo 254
isce 254
oggetti 254
setzen 253
Con@@ 253
esse 253
essi 253
breve 253
nahm 252
Hause 252
x 252
Denken 252
ismo 252
vite 252
Macht 251
do@@ 251
acc@@ 251
andato 251
vanno 251
roba 251
pensiamo 251
acht 250
Technik 250
ges@@ 250
ob@@ 250
cos' 250
Sehen 249
90 249
test 249
port@@ 249
faccia 249
arriva 249
Woche 248
stand 248
Lösung 248
stellte 248
300 248
Zum 248
go 248
notte 248
prodotti 248
massa 248
davanti 248
ö@@ 247
rei@@ 247
liches 247
wusste 247
mon@@ 247
Ri@@ 247
indi@@ 247
capito 247
genauso 246
alte 246
ric@@ 246
cio 246
naturalmente 246
verità 246
area 246
dimensioni 246
Ge@@ 245
Richard 245
Amerika 245
Namen 245
ola 245
fra 245
viaggio 245
Essen 244
kon@@ 244
dar@@ 244
ann@@ 244
Muster 244
arle 244
nazione 244
Thema 243
heit 243
kleines 243
gefunden 243
olo 243
imparato 243
draußen 242
ch 242
Bewegung 242
Haupt@@ 242
Kultur 242
cia 242
ario 242
giù 242
propria 242
esseri 242
Tage 241
Wochen 241
völlig 241
Kraft 241
Freunde 241
tante 241
cre@@ 241
chiunque 241
assolutamente 241
avevamo 241
devono 241
termini 241
passo 241
regole 241
suchen 240
mor@@ 240
ro 240
sé 240
risorse 240
provare 240
anderer 239
super@@ 239
19@@ 239
Fähigkeit 239
schi@@ 239
fragte 239
men@@ 239
sehe 239
ven@@ 239
emo 239
comportamento 239
ultima 239
Luft 238
Jeder 238
gewesen 238
Alle 238
liebe 238
meines 238
sk@@ 238
scheint 238
ole 238
stare 238
Krieg 237
dern 237
Oggi 237
Vortrag 236
sor@@ 236
18@@ 236
personale 236
stesse 236
libri 236
findet 235
Firma 235
hast 235
reg@@ 235
Oberfläche 235
col@@ 235
almente 235
poteva 235
genitori 235
gegeben 234
zer@@ 234
Wasser@@ 234
funktionieren 234
Gedanken 234
ur 234
ri 234
fossero 234
gono 234
Autos 233
Ding 233
lesen 233
erschaffen 233
usato 233
tragen 232
strumento 232
volete 232
punti 232
felicità 232
fliegen 231
Se@@ 231
ev@@ 231
4@@ 231
Verhalten 231
genannt 231
gr@@ 231
c 231
rende 231
cal@@ 231
materiale 231
rendere 231
qualità 231
cioè 231
vede 231
heraus@@ 230
Verbindung 230
bekommt 230
bist 230
Sp@@ 230
politica 230
gruppi 230
compassione 230
fühlen 229
elt 229
soluzione 229
settimane 229
cancro 229
kt 228
Technologien 228
CO2 228
spar@@ 228
iniziare 228
scala 228
Ma@@ 227
Monate 227
spr@@ 227
usa 227
uta 227
deciso 227
alt@@ 226
zehn 226
Kl@@ 226
Bi@@ 226
aggio 226
Reihe 225
glücklich 225
Vorstellung 225
ster@@ 225
pen@@ 225
immaginare 225
posizione 225
centinaia 225
malattie 225
Prozess 224
Wirtschaft 224
chte 224
Tatsache 224
Grund@@ 224
Stellen 224
normale 224
amico 224
lavorando 224
schließlich 223
hoffe 223
erten 223
Richtung 223
Karte 223
Teile 223
mo 223
ebbe 223
cura 223
scienziati 223
erzählt 222
sollen 222
geworden 222
Anzahl 222
möchten 222
gelernt 222
Größe 222
produrre 222
costruito 222
scoprire 222
fisica 222
felice 222
percento 222
Wer 221
danach 221
gekommen 221
Modell 221
eu@@ 221
ren@@ 221
impatto 221
Dopo 221
nessun 221
prezzo 221
solito 221
-S@@ 220
70 220
carta 220
cor@@ 220
venire 220
possano 220
mappa 220
esiste 220
prossimo 220
robot 220
accordo 220
iere 219
Ländern 219
nein 219
mondiale 219
spricht 218
zeit 218
zuvor 218
wei@@ 218
Mitte 218
ed@@ 218
San 218
iche 218
abili 218
scelta 218
Boden 217
daraus 217
Unsere 217
best@@ 217
fe 217
ite 217
esso 217
suono 217
del@@ 216
bare 216
km 216
Bildung 216
kleiner 216
anfangen 216
jemals 216
C 216
discorso 216
costo 216
Stiamo 216
eten 215
gezeigt 215
verwendet 215
interessiert 215
ß@@ 215
wer@@ 215
Natürlich 215
miteinander 215
hinter 215
Sonne 215
Patienten 215
ello 215
però 215
sarebbero 215
generazione 215
Forse 215
weg@@ 214
zeige 214
anzu@@ 214
hi@@ 214
risolvere 214
deshalb 213
Anderson 213
größten 213
leicht 213
niemals 213
Schritt 213
erklären 213
Vi@@ 213
Ne 213
industria 213
wachsen 212
bewusst 212
unseres 212
fest 212
schlecht 212
fate 212
velocità 212
magari 212
gingen 211
inn@@ 211
ex@@ 211
gebracht 211
Schauen 211
brachte 211
zz@@ 211
bella 211
milione 211
riguarda 211
relazione 211
linguaggio 211
Kon@@ 210
Regeln 210
ang@@ 210
Preis 210
avrebbero 210
aiuto 210
pò 210
fronte 210
permette 210
Sh@@ 209
bekannt 209
sprach 209
Markt 209
for@@ 209
erinnern 209
ast@@ 209
ca@@ 209
tempi 209
fanden 208
Erfolg 208
bereit 208
bilden 208
lu@@ 208
ure 208
scorso 208
mese 208
divertente 208
giovani 208
icamente 208
aiutare 208
age 207
Lehrer 207
Veränderung 207
zero 207
zioni 207
dissi 207
sociali 207
Viele 206
jemanden 206
Jahrhundert 206
son 206
24 206
lavorato 206
Adesso 206
zona 206
cominciare 206
cima 206
terzo 206
inglese 206
ok@@ 205
mer@@ 205
ft@@ 205
Evolution 205
är@@ 205
gu@@ 205
edi@@ 205
versione 205
conoscenza 205
obiettivo 205
materiali 205
ier@@ 204
aussehen 204
mu@@ 204
mer 204
falls 204
Per@@ 204
sicurezza 204
casi 204
letto 204
Wahrheit 203
laufen 203
Bill 203
Wissenschaftler 203
nachdenken 203
schwierig 203
leg@@ 203
Lebens@@ 203
Struktur 203
gesamte 203
größte 203
beide 203
devi 203
enza 203
fece 203
Vedete 203
maggiore 203
dovete 203
subito 203
nachdem 202
beginnt 202
entfernt 202
Situation 202
ori@@ 202
Ihren 202
cer@@ 202
Zahl 202
hoch@@ 202
Bo@@ 202
Mensch 202
pre@@ 202
maniera 202
aree 202
avamo 202
Lui 202
Washington 201
geschrieben 201
gegangen 201
Paul 201
schaft 201
Foto 201
molta 201
concetto 201
Reise 200
Meinung 200
Orte 200
herauszufinden 200
Meter 200
Gemeinschaft 200
Prima 200
ni 200
ista 200
dono 200
ghiaccio 200
nennt 199
Studenten 199
wert 199
bewegt 199
int@@ 199
tornare 199
Vorrei 199
fantastico 199
architettura 199
Zeit@@ 198
legen 198
azienda 198
Su@@ 197
Welt@@ 197
Um@@ 197
sonst 197
Gr@@ 197
All 197
Tat 197
bo@@ 197
arvi 197
Chi 197
pezzi 197
legge 197
scrivere 197
direzione 197
sanno 197
plötzlich 196
Bereich 196
guten 196
9 196
Gi@@ 196
alberi 196
cosi 196
colore 196
passare 196
ze 195
schrieb 195
Rest 195
finde 195
Generation 195
So@@ 195
erreicht 195
cher 195
ass@@ 195
ner 195
17 195
ers 195
oro 195
cambiamenti 195
termine 195
mostrarvi 195
pensiero 195
risultati 195
ans 194
Aufgabe 194
400 194
Mon@@ 194
B. 194
en-@@ 194
esi 194
sfida 194
erung 193
einfache 193
Angst 193
ane 193
ah@@ 193
versch@@ 193
dere 193
Ru@@ 193
online 193
At@@ 193
pochi 193
modelli 193
dà 193
fai 193
neanche 193
generale 193
effetto 193
favore 193
aufzu@@ 192
stark 192
Von 192
oli 192
bello 192
esperimento 192
Ero 192
chiamiamo 192
neues 191
egal 191
Bedeutung 191
Team 191
Vereinigten 191
Männer 191
ff@@ 191
Co@@ 191
gang 191
est 191
affrontare 191
scopo 191
scuole 191
Architektur 190
großer 190
met@@ 190
Deshalb 190
interesse 190
cu@@ 190
significato 190
entrare 190
condizioni 190
costa 190
americani 190
matematica 190
system 189
ft 189
7@@ 189
Tatsächlich 189
intelligente 189
Blick 189
Pro@@ 189
du@@ 189
rit@@ 189
Theorie 189
rin@@ 189
luoghi 189
ragazzo 189
geni 189
sai 189
web 189
Am 188
daher 188
Maschine 188
solare 188
x@@ 188
designer 188
bes@@ 188
end@@ 188
cont@@ 188
eri 188
produzione 188
blu 188
issimo 188
tig 187
onen 187
tige 187
ts 187
figlio 187
Perchè 187
guardando 187
numeri 187
Gen@@ 186
gearbeitet 186
Hälfte 186
mat@@ 186
ks 186
pa@@ 186
wieder@@ 186
Fl@@ 186
essa 186
diversa 186
prova 186
leggere 186
rischio 186
gesprochen 185
innen 185
/ 185
Tages 185
bei@@ 185
dete 185
ech@@ 185
tue 185
Ent@@ 185
14 185
lunga 185
bisogna 185
cambiato 185
dachten 184
äu@@ 184
absolut 184
ähnlich 184
realizzare 184
velocemente 184
amenti 184
furono 184
piante 184
simili 184
machten 183
denkt 183
schw@@ 183
voll 183
geschieht 183
möglichen 183
ph@@ 183
Einige 183
offensichtlich 183
Straße 183
Krebs 183
Mitgefühl 183
bel@@ 183
Einstein 183
vo 183
incredibilmente 183
istruzione 183
esempi 183
Tagen 182
Ihrem 182
sin@@ 182
oh 182
tern 182
Gene 182
dr@@ 182
Gut 182
sci@@ 182
arti 182
eravamo 182
le@@ 181
verloren 181
auszu@@ 181
Rolle 181
influenza 181
-T@@ 181
Tr@@ 181
dieci 181
malattia 181
pazienti 181
sti@@ 180
arbeitet 180
ismus 180
verbunden 180
tat 180
software 180
erò 180
Guardate 180
animale 180
Alla 180
bekam 179
Herausforderung 179
Roboter 179
Ihrer 179
2000 179
Schul@@ 179
soziale 179
ini@@ 179
por@@ 179
crisi 179
raggiungere 179
ragioni 179
vivono 179
approccio 179
dendo 179
Freund 178
a-@@ 178
pag@@ 178
Mars 178
mögen 178
ständig 178
tor@@ 178
cht 178
ansehen 178
Gebiet 178
Kosten 178
6@@ 178
digitale 178
richtige 178
medi@@ 178
star@@ 178
o-@@ 178
zone 178
lontano 178
persino 178
nessuna 178
potreste 178
presente 178
ran@@ 177
fallen 177
Fähigkeiten 177
liegen 177
ati@@ 177
än@@ 177
10.000 177
ov@@ 177
povertà 177
chiaro 177
Un' 177
stavano 177
nazioni 177
he 176
nahmen 176
bu@@ 176
größer 176
gew@@ 176
Nach 176
99 176
ent 176
ierte 176
qua 176
ovunque 176
semplici 176
ognuno 176
innovazione 176
Nacht 175
Gesundheit 175
beste 175
lichkeit 175
Spezies 175
Si@@ 175
versuche 175
ard 175
Bl@@ 175
Am@@ 175
gener@@ 175
kannst 175
B 175
ì 175
giusta 175
dunque 175
einander 174
Nach@@ 174
son@@ 174
sofort 174
The 174
no@@ 174
Schulen 174
En@@ 174
Alcuni 174
quanti 174
letteralmente 174
beh 174
umanità 174
paziente 174
  173
Spaß 173
Heute 173
stimmt 173
tigen 173
Platz 173
gli@@ 173
Krankheit 173
get@@ 173
dung 172
Eines 172
nachzudenken 172
sahen 172
Öl 172
hält 172
schl@@ 172
Wirklichkeit 172
gas 172
verde 172
prende 172
contesto 172
pensano 172
Marte 172
diciamo 172
crea 172
finito 172
Ex@@ 171
r 171
To@@ 171
det 171
länger 171
anstatt 171
wi@@ 171
Stelle 171
13 171
daß 171
Mor@@ 171
James 171
mostrato 171
strade 171
paura 171
Sinne 170
Zeug 170
app@@ 170
hal@@ 170
estremamente 170
aperto 170
famiglie 170
pensa 170
speranza 170
potente 170
giovane 170
Man@@ 169
Prinzip 169
außer 169
weiter@@ 169
aten 169
gleichzeitig 169
Beziehung 169
passierte 169
anti@@ 169
Umgebung 169
po 169
geboren 169
benutzt 169
Charles 169
funzionare 169
soprattutto 169
evano 169
poveri 169
differenti 169
alità 169
emmo 169
recente 169
nucleare 169
gem@@ 168
kten 168
Während 168
komplett 168
Programm 168
ster 168
Gu@@ 168
ess@@ 168
Au@@ 168
fu@@ 168
lista 168
danno 168
vuoi 168
laboratorio 168
Bau@@ 167
langsam 167
trotzdem 167
Nur 167
einzelne 167
Monaten 167
Bücher 167
anschauen 167
ura 167
anza 167
mento 167
soli 167
eranno 167
entro 167
Material 166
sitzen 166
Bevölkerung 166
Armut 166
'@@ 166
ations@@ 166
z. 166
hei@@ 166
Städte 166
spielt 166
Wert 166
5@@ 166
ga 166
diceva 166
andando 166
spero 166
accesso 166
batteri 166
oppure 166
messaggio 166
materia 166
vento 166
ik@@ 165
Gerät 165
res@@ 165
Universität 165
führte 165
Zahlen 165
leader 165
morti 165
né 165
atmosfera 165
pensando 165
soltanto 165
danke 164
NASA 164
gestellt 164
ee 164
Po@@ 164
ban@@ 164
ott@@ 164
ea 164
stile 164
ieri 164
stai 164
iscono 164
provato 164
vive 164
avesse 164
Nigeria 163
cher@@ 163
Nummer 163
Umwelt 163
zuerst 163
bestimmt 163
fest@@ 163
Grenzen 163
fangen 163
voller 163
hen 163
20@@ 163
form@@ 163
Pr@@ 163
atto 163
Designer 162
Hand@@ 162
Ozean 162
werfen 162
trag@@ 162
hr@@ 162
wichtiger 162
.. 162
ha@@ 162
conferenza 162
praticamente 162
dimensione 162
veloce 162
crescere 162
Monat 161
Amerikaner 161
arbeite 161
Können 161
erlaubt 161
gegenüber 161
ität 161
allein 161
Or@@ 161
Vergangenheit 161
Michael 161
Im@@ 161
voce 161
vostre 161
contatto 161
principale 161
particelle 161
zt 160
21 160
Orten 160
tra@@ 160
Information 160
entr@@ 160
Spiel@@ 160
Eis 160
tenere 160
andati 160
soluzioni 160
fondamentale 160
prossimi 160
servizio 160
Mentre 160
hinaus 159
holen 159
Einfluss 159
Beispiele 159
Sicherheit 159
komme 159
begannen 159
irgendwo 159
Los 159
rec@@ 159
dic@@ 159
totale 159
tale 159
isti 159
desiderio 159
aziende 159
succedendo 159
dita 159
propri 159
trovano 159
schneller 158
ist@@ 158
De@@ 158
land 158
beg@@ 158
pp@@ 158
klein 158
pres@@ 158
lavori 158
organizzazione 158
cielo 158
zia 158
avremmo 158
richtigen 157
weltweit 157
Auch 157
MIT 157
bleibt 157
150 157
Groß@@ 157
ums 157
welcher 157
zumindest 157
Bakterien 157
enen 157
For@@ 157
venne 157
sento 157
baren 156
Ebene 156
Million 156
Wo 156
Hoffnung 156
hab 156
Alter 156
Car@@ 156
fa@@ 156
Konzept 156
Finger 156
Kar@@ 156
8@@ 156
Objekt 156
ah 156
ativo 156
argomento 156
peso 156
finire 156
Nessuno 156
kte 155
Pflanzen 155
befinden 155
Experiment 155
Zellen 155
Dan 155
Selbst@@ 155
bestimmten 155
geschehen 155
ost@@ 155
pol@@ 155
affari 155
prossima 155
forze 155
pelle 155
ges 154
Dorf 154
egen 154
gemeinsam 154
entdeckt 154
min@@ 154
Times 154
Gesicht 154
Gruppen 154
D 154
tive 154
occhio 154
usano 154
villaggio 154
proposito 154
strano 154
Formen 153
kt@@ 153
Seiten 153
pf@@ 153
Forschung 153
Ordnung 153
fällt 153
lieben 153
Uhr 153
th@@ 153
retten 153
ative 153
pu@@ 153
Wi@@ 153
Wikipedia 153
vedrete 153
deva 153
usiamo 153
attorno 153
arne 153
ant 152
mal@@ 152
testen 152
Ro@@ 152
Menschheit 152
Schw@@ 152
ali@@ 152
frei 152
fis@@ 152
vale 152
oper@@ 152
pane 152
business 152
continuare 152
sviluppare 152
giochi 152
entrambi 152
osservare 152
voleva 152
Mit@@ 151
erzeugen 151
entdecken 151
nenne 151
verlieren 151
beobachten 151
Farbe 151
tri@@ 151
pieno 151
interessanti 151
Fu 151
studiare 151
ragazza 151
Entscheidungen 150
statt 150
produzieren 150
El@@ 150
Aufmerksamkeit 150
s-@@ 150
35 150
läuft 150
dio 150
sl@@ 150
Ergebnis 150
elli 150
infatti 150
felici 150
ner@@ 149
Wahl 149
diejenigen 149
normalerweise 149
Innovation 149
Meer 149
Realität 149
setzt 149
is 149
Arbeits@@ 149
ches 149
deine 149
9@@ 149
mag@@ 149
vedo 149
compr@@ 149
evo 149
potevano 149
vecchio 149
cambia 149
sammeln 148
Labor 148
ern@@ 148
Ku@@ 148
verlassen 148
000 148
Hoch@@ 148
Herz@@ 148
Fehler 148
defin@@ 148
aut@@ 148
Solo 148
alcun 148
mostr@@ 148
ezza 148
distanza 148
singolo 148
valori 148
Gründe 147
arbeitete 147
ds 147
bald 147
Super@@ 147
gra@@ 147
versuchte 147
links 147
echt 147
Francisco 147
600 147
anz@@ 147
abbiano 147
credere 147
rapidamente 147
aiuti 147
Nella 147
telefono 147
partire 147
dito 147
erklärt 146
großartige 146
wichtige 146
ach@@ 146
vers@@ 146
ret@@ 146
Version 146
atte 146
fort@@ 146
ber 146
aussieht 146
fil@@ 146
sb@@ 146
eo 146
internet 146
seguito 146
contr@@ 146
nord 146
Quella 146
dovrebbero 146
perso 146
Certo 146
proprietà 146
cerca 146
ologia 146
pesce 146
rund 145
to@@ 145
bile 145
sel@@ 145
gewinnen 145
Typ 145
TV 145
abzu@@ 145
Morgen 145
Mi@@ 145
fing 145
verstanden 145
comprare 145
foresta 145
diventato 145
voluto 145
morale 145
meraviglioso 145
oceani 145
Stimme 144
ologie 144
warten 144
Tod 144
Krankheiten 144
betrachtet 144
Gel@@ 144
gesamten 144
sa@@ 144
DH 144
uto 144
cap@@ 144
prime 144
economico 144
settore 144
fretta 144
chiave 144
opera 144
volo 144
giocare 144
capo 144
biologia 144
farò 144
comincia 144
Ju@@ 143
ender 143
seines 143
Künstler 143
ihres 143
Sicht 143
Geist 143
Pen@@ 143
drehen 143
Eis@@ 143
sti 143
moglie 143
aereo 143
edifici 143
albero 143
menti 143
passione 143
pressione 143
presto 143
pagina 143
studi 143
impossibile 143
effettivamente 143
pesci 143
Konferenz 142
imm@@ 142
bestimmte 142
handelt 142
näher 142
unmöglich 142
ai@@ 142
ala 142
far@@ 142
atura 142
bellezza 142
necessario 142
Negli 142
emozioni 142
Infatti 142
venuto 142
accade 142
tardi 142
comprendere 142
Sto 142
sullo 142
troviamo 142
raccontare 142
bessere 141
verkaufen 141
Himmel 141
übrigens 141
na@@ 141
Wesen 141
wider@@ 141
Software 141
rechts 141
gere 141
Li 141
piacerebbe 141
ossigeno 141
mangiare 141
Comunque 141
canzone 141
ufficio 141
esimo 141
ruolo 141
rivoluzione 141
Produkt 140
sowohl 140
Bezug 140
war@@ 140
Medien 140
Revolution 140
George 140
fun@@ 140
BF 140
miglia 140
eremo 140
doveva 140
vedono 140
conosciamo 140
vivo 140
lingua 140
insegnanti 140
terza 140
amerikanischen 139
treten 139
dor@@ 139
aler 139
Afghanistan 139
45 139
Name 139
enten 139
manche 139
Personen 139
Materialien 139
Fotos 139
Ah 139
prim@@ 139
appar@@ 139
inizia 139
vano 139
aspetti 139
costruzione 139
mette 139
enormi 139
guarda 139
Zu 138
ierten 138
Robert 138
ien 138
prov@@ 138
Linie 138
sub@@ 138
folgen 138
lebt 138
vorher 138
beh@@ 138
Le@@ 138
außerhalb 138
ehr@@ 138
asi@@ 138
steigen 138
Artikel 138
ne@@ 138
sar@@ 138
sol@@ 138
Web 138
sala 138
uti 138
sapevo 138
mostrare 138
ascoltare 138
insegn@@ 138
nove 138
Politik 137
hilft 137
fertig 137
raus 137
Bar@@ 137
ens@@ 137
solchen 137
An 137
Kontrolle 137
riesige 137
großes 137
geh@@ 137
National 137
rot@@ 137
zza 137
parlerò 137
fisico 137
probabilità 137
lasciato 137
certamente 137
lavorano 137
libertà 137
ricor@@ 137
lasciare 137
uscire 137
Bühne 136
Do@@ 136
kan@@ 136
Projekte 136
ho@@ 136
Rei@@ 136
überleben 136
toll 136
geschaffen 136
X 136
Ber@@ 136
Lu@@ 136
Mio 136
pren@@ 136
direttamente 136
spiegare 136
volare 136
vicini 136
vuol 136
minuto 136
rispondere 136
cane 136
condividere 136
costi 136
tion 135
ute 135
untersuchen 135
globalen 135
T 135
Pl@@ 135
wussten 135
Neu@@ 135
Dr 135
ment@@ 135
runter 135
Steve 135
la@@ 135
gefragt 135
befindet 135
Mc@@ 135
Life 135
secondi 135
chilometri 135
importa 135
farvi 135
fortuna 135
mostrerò 135
buone 135
educazione 135
braccio 135
Beginn 134
Umwelt@@ 134
weise 134
herstellen 134
herum@@ 134
reichen 134
schlagen 134
Interesse 134
lin@@ 134
selben 134
Wow 134
ick 134
Sei 134
te@@ 134
ona 134
tur@@ 134
presentazione 134
ricevuto 134
importanza 134
Più 134
epoca 134
intelligenza 134
nero 134
potesse 134
decisioni 134
notizie 134
pianeti 134
neben 133
endes 133
Her@@ 133
digen 133
Zeitpunkt 133
Organisation 133
oll@@ 133
Atmosphäre 133
sobald 133
Hey 133
echte 133
des@@ 133
ey 133
Mathematik 133
pot@@ 133
Natur@@ 133
Nord 133
schicken 133
Dove 133
Molti 133
compagnia 133
mettiamo 133
guardiamo 133
angolo 133
intelligenti 133
muro 133
ermöglicht 132
heutzutage 132
hinein 132
Methode 132
und@@ 132
schaut 132
neur@@ 132
bet@@ 132
Nachricht 132
Ben@@ 132
coi 132
assero 132
Qualcuno 132
sviluppato 132
piacere 132
Giusto 132
tasso 132
sugli 132
salvare 132
segu@@ 132
Mu@@ 131
gehalten 131
echten 131
dritte 131
Zentrum 131
Job 131
taten 131
messen 131
tiert 131
einzelnen 131
vergessen 131
75 131
leisten 131
Kunst@@ 131
ba 131
Bu@@ 131
notizia 131
permesso 131
misura 131
rappresenta 131
fenomeno 131
andate 131
fotografia 131
Tür 130
ebenso 130
sh@@ 130
hundert 130
entschieden 130
Met@@ 130
neun 130
All@@ 130
Nahrung 130
Brot 130
$ 130
blog 130
ella 130
Avete 130
migliorare 130
cur@@ 130
università 130
coloro 130
avrà 130
esterno 130
organismi 130
potenziale 130
continua 130
nato 130
sembrano 130
religione 130
colori 130
rest@@ 129
Flugzeug 129
langen 129
1000 129
ler@@ 129
bisher 129
dorthin 129
w 129
verbessern 129
Sohn 129
Behandlung 129
Auge 129
Darwin 129
Lei 129
diventano 129
gambe 129
hielt 128
junge 128
Sekunden 128
nehme 128
Fin@@ 128
Firmen 128
Geschäft 128
kosten 128
Herz 128
voll@@ 128
Ahnung 128
Sen@@ 128
entscheiden 128
gutes 128
Computer@@ 128
ord@@ 128
Bewusstsein 128
Netzwerk 128
Einer 128
pan@@ 128
cercato 128
coll@@ 128
notare 128
relazioni 128
comunicazione 128
speciale 128
elementi 128
ales 127
erfahren 127
Bäume 127
entweder 127
lei@@ 127
gehe 127
nis@@ 127
Gegen@@ 127
fragt 127
Ur@@ 127
Ad 127
usw 127
angefangen 127
tu@@ 127
Leidenschaft 127
Hei@@ 127
inc@@ 127
elettricità 127
sbagliato 127
responsabilità 127
chiedere 127
grafico 127
schermo 127
complessità 127
Universo 127
Rück@@ 126
Grad 126
Na 126
lan@@ 126
Spr@@ 126
team 126
erst@@ 126
Worte 126
Kom@@ 126
zwei@@ 126
Gesetz 126
Tier@@ 126
Com@@ 126
Sterne 126
val@@ 126
Tier 126
bin@@ 126
ram@@ 126
Chi@@ 126
economica 126
intendo 126
morire 126
mattina 126
Può 126
morto 126
realizzato 126
ricerche 126
medicina 126
ospedale 126
ausge@@ 125
Lösungen 125
Masse 125
dadurch 125
Wei@@ 125
wann 125
Thomas 125
10@@ 125
itt@@ 125
Selbst 125
unterschiedliche 125
mis@@ 125
Fi@@ 125
zweiten 125
Materie 125
Br@@ 125
Religion 125
eta 125
poche 125
ide@@ 125
liber@@ 125
off@@ 125
finale 125
vari 125
palco 125
servono 125
campi 125
terreno 125
governi 125
complesso 125
motore 125
sangue 125
oren 124
Genau 124
19 124
Dis@@ 124
heutigen 124
unglaubliche 124
Wand 124
enz@@ 124
the 124
Inter@@ 124
ppe 124
sera 124
analisi 124
parliamo 124
faremo 124
pare 124
dirvi 124
andata 124
sesso 124
lezione 124
codice 124
incontrato 124
individui 124
creature 124
strato 124
erfunden 123
erzählte 123
Chance 123
jemandem 123
jungen 123
Junge 123
ken@@ 123
eller 123
großartig 123
5.000 123
Regel 123
Höhe 123
fal@@ 123
dec@@ 123
California 123
stampa 123
carbonio 123
conc@@ 123
straordinario 123
faceva 123
raccogliere 123
Daher 122
ebenfalls 122
Gesundheits@@ 122
einfachen 122
dasselbe 122
existiert 122
Worten 122
tief 122
TED-@@ 122
ator 122
ät@@ 122
Ad@@ 122
sozialen 122
Verständnis 122
lt 122
Suche 122
ör@@ 122
Nord@@ 122
pal@@ 122
AB 122
pi 122
livelli 122
viviamo 122
creazione 122
scoperta 122
ordine 122
pubblica 122
denti 122
fase 122
nonostante 122
enz 121
gleich@@ 121
aufgrund 121
Gew@@ 121
Familien 121
alter 121
geg@@ 121
genutzt 121
geführt 121
Mag@@ 121
mehrere 121
World 121
Nachrichten 121
Stunde 121
Zwei 121
besch@@ 121
tet 121
Landes 121
Hände 121
rag@@ 121
finché 121
utile 121
servizi 121
ragazze 121
spiega 121
perche 121
Invece 121
metodo 121
programmi 121
reso 121
leggi 121
isieren 120
Auswirkungen 120
As@@ 120
Wachstum 120
enti@@ 120
Virus 120
Eigenschaften 120
Microsoft 120
anz 120
erfolgreich 120
test@@ 120
Universums 120
pul@@ 120
Islam 120
pos@@ 120
case 120
ativa 120
disc@@ 120
dolore 120
scelte 120
sione 120
pubblicità 120
presenti 120
perdere 120
arrivato 120
tizio 120
sorprendente 120
gradi 120
erebbe 120
ricordo 120
chiam@@ 120
differenze 120
mamma 120
centrale 120
darvi 120
classe 120
Noch 119
Bur@@ 119
trifft 119
Ressourcen 119
endlich 119
elles 119
Jahrhunderts 119
Verantwortung 119
Regierungen 119
Zeiten 119
extrem 119
elte 119
Schönheit 119
verrückt 119
fol@@ 119
ay@@ 119
Ansatz 119
hört 119
Englisch 119
chen@@ 119
älter 119
v 119
kaum 119
Punkte 119
eri@@ 119
spreche 119
Pal@@ 119
Cre@@ 119
Wal@@ 119
pat@@ 119
locale 119
diritti 119
cellulare 119
parlo 119
portano 119
creatività 119
articolo 119
immagin@@ 119
tiamo 119
talmente 119
avessi 119
istituzioni 119
größeren 118
getroffen 118
früher 118
Gewalt 118
Geschwindigkeit 118
tere 118
herausfinden 118
abb@@ 118
Howard 118
loc@@ 118
Werte 118
fon@@ 118
Obama 118
Av@@ 118
scegliere 118
arrivano 118
perfetto 118
lavora 118
buono 118
totalmente 118
incontr@@ 118
grosso 118
insegnante 118
traf 117
Entscheidung 117
halte 117
Produkte 117
mt 117
äre 117
keiner 117
los@@ 117
City 117
brechen 117
alität 117
Wunsch 117
standard 117
desto 117
rel@@ 117
dar 117
Mal@@ 117
Gehirns 117
kostet 117
einzigen 117
inten@@ 117
cin@@ 117
Arm 117
ami 117
temperatura 117
riusciamo 117
entra 117
miliardo 117
sopravvivere 117
principio 117
tir@@ 117
rapporto 117
reti 117
nota 117
sud 117
disposizione 117
rà 117
unità 117
formiche 117
ridurre 117
Haben 116
konzentrieren 116
öffentlichen 116
riesigen 116
produ@@ 116
Werkzeuge 116
tausende 116
ange@@ 116
gedacht 116
weiss 116
stellten 116
Teilen 116
ften 116
verkauft 116
frei@@ 116
Zugang 116
Gehirn@@ 116
Harvard 116
ver 116
Zustand 116
Pakistan 116
Physik 116
Twitter 116
fin 116
americano 116
fuoco 116
produce 116
tratt@@ 116
momenti 116
squadra 116
onda 116
proprie 116
uccelli 116
tuoi 116
riesce 116
Papier 115
wenige 115
Verfügung 115
zw@@ 115
flu@@ 115
Ho@@ 115
Recht 115
dreht 115
sozusagen 115
det@@ 115
tieren 115
Intelligenz 115
Far@@ 115
Fuß 115
Herr 115
kriegen 115
27 115
geschafft 115
seg@@ 115
ari@@ 115
inare 115
prospettiva 115
potrei 115
pensi 115
bianco 115
Vediamo 115
origine 115
regola 115
gung 114
Veränderungen 114
fall 114
Sa@@ 114
formen 114
Milliarde 114
verl@@ 114
ame 114
Schl@@ 114
san@@ 114
scht 114
Bitte 114
mel@@ 114
Versuch 114
verbinden 114
Pu@@ 114
spor@@ 114
Klimawandel 114
discussione 114
violenza 114
basta 114
tema 114
Molto 114
conoscere 114
seguire 114
schlechte 113
Strom 113
ün@@ 113
fähig 113
verw@@ 113
Quelle 113
Jedes 113
bra@@ 113
begonnen 113
hörte 113
Kamera 113
lief 113
wür@@ 113
Prot@@ 113
fan@@ 113
Sk@@ 113
Studie 113
Reg@@ 113
32 113
Hu@@ 113
spieg@@ 113
ließ 113
Chicago 113
Verbindungen 113
geschah 113
apr@@ 113
fatte 113
fonte 113
compito 113
funzione 113
linee 113
creano 113
controllare 113
percorso 113
Va 113
dem@@ 112
aller@@ 112
wichtigsten 112
War@@ 112
ermöglichen 112
stecken 112
ker@@ 112
Biologie 112
studi@@ 112
Objekte 112
Körper@@ 112
TED@@ 112
Angeles 112
L 112
uni@@ 112
hi 112
KB 112
farci 112
aiut@@ 112
zzare 112
Quel 112
vissuto 112
missione 112
misur@@ 112
Ovviamente 112
Due 112
risposte 112
Immaginate 112
S 111
stu@@ 111
Schüler 111
Wege 111
Netz 111
Baby 111
Gesch@@ 111
größere 111
ase 111
zieht 111
Lebewesen 111
fühle 111
Medizin 111
isse 111
lag 111
Ameisen 111
ami@@ 111
positive 111
Iran 111
spirito 111
politici 111
creando 111
poiché 111
riusciti 111
camminare 111
carne 111
prove 111
sero 111
Best@@ 110
Kollegen 110
Gelegenheit 110
ppen 110
produziert 110
gestalten 110
Luft@@ 110
erstes 110
Damit 110
k-@@ 110
lautet 110
kenne 110
Herzen 110
lich@@ 110
Ger@@ 110
prot@@ 110
P 110
schließen 110
100.000 110
alz@@ 110
behandeln 110
bil@@ 110
Typen 110
ero@@ 110
dell 110
gri@@ 110
zi 110
ele 110
RB 110
atrice 110
immediatamente 110
attuale 110
estate 110
campagna 110
profondità 110
sensazione 110
contrario 110
atica 110
principali 110
Erano 110
avremo 110
acqu@@ 110
gestern 109
Abend 109
Meilen 109
zeigte 109
herzustellen 109
verbringen 109
go@@ 109
Druck 109
gaben 109
vari@@ 109
Bas@@ 109
Hy@@ 109
Komplexität 109
Land@@ 109
eigenes 109
weisen 109
ließen 109
abit@@ 109
funzionano 109
possibili 109
arrivati 109
artisti 109
superiore 109
infine 109
africani 109
Pensate 109
potevo 109
studente 109
nazionale 109
errore 109
glamour 109
Demokratie 108
eure 108
erwarten 108
handeln 108
anischen 108
hängt 108
Geb@@ 108
len@@ 108
ks@@ 108
amm@@ 108
Manchmal 108
Vielfalt 108
Kilometer 108
zeit@@ 108
guter 108
vorbei 108
Valley 108
-F@@ 108
2005 108
Atom@@ 108
iti@@ 108
ena 108
2007 108
olare 108
enta 108
Inoltre 108
democrazia 108
lavor@@ 108
Secondo 108
esperimenti 108
maggiori 108
esplorare 108
Ti 108
regione 108
diventata 108
chiaramente 108
All' 108
profondo 108
giornata 108
Ha@@ 107
beschäftigt 107
ang 107
Mittel 107
Tisch 107
aufgenommen 107
Massen@@ 107
bestehen 107
ehrlich 107
neuer 107
schöne 107
dur@@ 107
Medi@@ 107
Tom 107
ick@@ 107
zung 107
Sal@@ 107
erin 107
dein 107
Systeme 107
ment 107
pe@@ 107
lernte 107
Bush 107
zio 107
umane 107
gi 107
tavolo 107
mettono 107
salv@@ 107
dettagli 107
esserci 107
veniva 107
gia 107
pagine 107
strutture 107
cinese 107
insegnato 107
pace 107
neuroni 107
differente 107
pensavo 107
Sud 107
certa 107
conseguenze 107
terribile 107
montagna 107
Londra 107
galassie 107
Gore 106
rein 106
rechten 106
Zusammenhang 106
entstehen 106
steckt 106
werk 106
0@@ 106
nahe 106
Du@@ 106
gezogen 106
ade 106
schützen 106
Reaktion 106
sche 106
Hund 106
Antworten 106
Hinter@@ 106
tel@@ 106
jene 106
immer@@ 106
Pi@@ 106
Wind 106
sac@@ 106
facilmente 106
capaci 106
inato 106
formazione 106
spazi 106
cerchiamo 106
aspett@@ 106
stavamo 106
quante 106
Tutte 106
funzioni 106
passa 106
stia 106
esperienze 106
Sembra 106
Posso 106
caratteristiche 106
negozio 106
lung 105
Einkommen 105
Bauern 105
Oxford 105
wiederum 105
Infrastruktur 105
Naja 105
Liste 105
rein@@ 105
Nähe 105
fer 105
schätzen 105
Energi@@ 105
els 105
auen 105
nu@@ 105
inform@@ 105
2008 105
avi@@ 105
parl@@ 105
dom@@ 105
portata 105
muove 105
Sta 105
commerciale 105
sarei 105
incontro 105
diventando 105
tramite 105
comprensione 105
molecole 105
avviene 105
agricoltura 105
luna 105
er-@@ 104
hervor@@ 104
hart 104
benötigt 104
Mond 104
Farben 104
Unser 104
rau@@ 104
einzu@@ 104
aren 104
Ris@@ 104
Dort 104
Sehr 104
Filme 104
tem@@ 104
ley 104
ind@@ 104
ron@@ 104
pe 104
bi 104
atti 104
cos@@ 104
mostro 104
particolarmente 104
eventi 104
avvicin@@ 104
attimo 104
esistono 104
inser@@ 104
com' 104
aumento 104
devano 104
parlarvi 104
sembrare 104
ciascuno 104
evole 104
sogno 104
uren 103
neu@@ 103
weiterhin 103
verursacht 103
Öl@@ 103
form 103
fall@@ 103
gebe 103
erlauben 103
natürliche 103
okay 103
Keine 103
Hintergrund 103
Region 103
fort 103
Spitze 103
Affen 103
reich 103
Freude 103
Ergebnisse 103
pens@@ 103
Uganda 103
atti@@ 103
Sar@@ 103
cam@@ 103
rimane 103
riuscire 103
guida 103
Avevo 103
scena 103
chiede 103
industriale 103
alcuna 103
remo 103
cresciuto 103
Rede 102
einfacher 102
tolle 102
cool 102
Straßen 102
erzeugt 102
erforschen 102
verhalten 102
Beziehungen 102
Kreativität 102
Sauerstoff 102
zahlen 102
ont@@ 102
gelangen 102
ice 102
bau@@ 102
aden 102
Gefühle 102
scheinen 102
Fische 102
fühlt 102
Loch 102
om 102
ss 102
Karten 102
don@@ 102
medio 102
utilizzare 102
insegnare 102
riuscito 102
definizione 102
Sappiamo 102
serio 102
dissero 102
andiamo 102
decidere 102
elettrica 102
sfide 102
plastica 102
evento 102
Laptop 101
schaften 101
Erstens 101
stellung 101
Sub@@ 101
sag@@ 101
sicherlich 101
ehen 101
Bel@@ 101
dagegen 101
Kur@@ 101
Menschen@@ 101
legt 101
Unterschiede 101
arti@@ 101
Glauben 101
1.000 101
mut@@ 101
rim@@ 101
etica 101
elo 101
imp@@ 101
issima 101
reddito 101
ritrov@@ 101
colleghi 101
diritto 101
buoni 101
incredibili 101
specialmente 101
rosso 101
memoria 101
mila 101
data 101
messi 101
frase 101
bellissima 101
raggiunto 101
assicur@@ 101
inventato 101
personaggio 101
gilt 100
mittel 100
fri@@ 100
unterstützen 100
erinnert 100
Fortschritt 100
finanzi@@ 100
nte 100
fli@@ 100
frühen 100
Jungs 100
hinein@@ 100
Sex 100
Jahres 100
ms 100
Botschaft 100
zen@@ 100
entsteht 100
sucht 100
vier@@ 100
can@@ 100
passt 100
Gl@@ 100
ys 100
entschied 100
ton 100
Fernsehen 100
vollständig 100
gespielt 100
ko@@ 100
Soldaten 100
wor@@ 100
Einzel@@ 100
Wahrscheinlichkeit 100
vere 100
certi 100
bili 100
mercati 100
mantenere 100
avessero 100
crediamo 100
Pubblico 100
occhiata 100
adulti 100
pagare 100
climatico 100
hren 99
satz 99
R 99
nung 99
fern 99
Maschinen 99
geschichte 99
Kunden 99
Indi@@ 99
Tieren 99
ären 99
Niemand 99
passen 99
brauchte 99
ani@@ 99
Medikamente 99
gesetzt 99
Kinder@@ 99
gh@@ 99
Manche 99
Peter 99
London 99
sper@@ 99
Hai 99
pes@@ 99
acci@@ 99
Loro 99
ingegneri 99
aspettare 99
farà 99
progresso 99
inoltre 99
Molte 99
limiti 99
vecchia 99
Puoi 99
gendo 99
posta 99
passaggio 99
Iraq 99
benessere 99
schn@@ 98
oh@@ 98
kurze 98
ativen 98
zieren 98
Ko@@ 98
ür@@ 98
he@@ 98
frage 98
nochmal 98
Dass 98
1,@@ 98
Tri@@ 98
zeichnen 98
offen 98
ef@@ 98
bis@@ 98
Japan 98
entlang 98
erstaunlich 98
tausend 98
Gra@@ 98
rat@@ 98
sem@@ 98
letztes 98
öffnen 98
lanci@@ 98
Mil@@ 98
verdienen 98
Sekunde 98
clima 98
lasci@@ 98
signore 98
feci 98
continente 98
locali 98
tiva 98
fiume 98
consider@@ 98
meravigliosa 98
civiltà 98
aiuta 98
diversità 98
concludere 98
trov@@ 98
connessione 98
coda 98
kor@@ 97
heiten 97
Haufen 97
wohin 97
erleben 97
nächstes 97
Museum 97
ot 97
Sonnen@@ 97
stell@@ 97
rate 97
fahr@@ 97
Ak@@ 97
Ven@@ 97
Planet 97
beschreiben 97
erinnere 97
Dar@@ 97
ation@@ 97
Beine 97
ziert 97
Jo@@ 97
art@@ 97
kraft 97
originale 97
X@@ 97
esi@@ 97
Th@@ 97
Galaxien 97
assi 97
fot@@ 97
post@@ 97
isco 97
SW 97
itare 97
network 97
somma 97
clienti 97
piani 97
metto 97
alimentare 97
premio 97
studiato 97
sembrava 97
riescono 97
sioni 97
racconta 97
varie 97
Ancora 97
pericolo 97
risposto 97
Devo 97
wächst 96
erstellen 96
2001 96
amerikanische 96
Flug@@ 96
Industrie 96
Gedanke 96
Fahr@@ 96
Haut 96
davor 96
Organismen 96
möglicherweise 96
ll@@ 96
sodass 96
trägt 96
eig@@ 96
Freiheit 96
’ 96
wert@@ 96
Büro 96
Zi@@ 96
Park 96
Col@@ 96
semi 96
Augen@@ 96
Galaxie 96
stoff@@ 96
Ärzte 96
ede 96
dite 96
capitale 96
carbone 96
agire 96
immaginazione 96
capace 96
membri 96
chimica 96
esistenza 96
sostenibile 96
guidare 96
ografia 96
quegli 96
adatt@@ 96
seduti 96
bassa 96
Partner 95
log@@ 95
Film@@ 95
Sommer 95
Des@@ 95
benötigen 95
mindestens 95
senden 95
Aktivität 95
irgendwann 95
wunderbar 95
steigt 95
Apple 95
Jobs 95
zog 95
ecken 95
kontrollieren 95
rem@@ 95
pon@@ 95
Traum 95
not@@ 95
Q@@ 95
West@@ 95
bo 95
autor@@ 95
schema 95
riscaldamento 95
funzion@@ 95
ingegneria 95
prepar@@ 95
eccetera 95
fondamentalmente 95
organizz@@ 95
Ce 95
gir@@ 95
essero 95
freddo 95
comuni 95
cellula 95
sente 95
qual 95
trovo 95
finalmente 95
scal@@ 95
guar@@ 95
galassia 95
solamente 95
punkt 94
deutlich 94
sorgen 94
mas@@ 94
veröffentlicht 94
tert 94
fas@@ 94
entwickelten 94
herausgefunden 94
bri@@ 94
Es@@ 94
Risiko 94
Plan 94
ganzes 94
erz@@ 94
prest@@ 94
är 94
Ni@@ 94
diver@@ 94
1.@@ 94
Fluss 94
vermutlich 94
Position 94
Martin 94
16@@ 94
Falls 94
fotografie 94
ature 94
api 94
Second 94
radio 94
atevi 94
decisione 94
Però 94
porre 94
ormai 94
osserv@@ 94
essenzialmente 94
rendono 94
andosi 94
avrete 94
chiamano 94
peggio 94
interessato 94
contenuto 94
errori 94
sostanza 94
sguardo 94
neri 94
politiche 94
investieren 93
Landwirtschaft 93
Wald 93
Baum 93
Nor@@ 93
Organisationen 93
gte 93
sitzt 93
pas@@ 93
hergestellt 93
dieselbe 93
ep@@ 93
anderem 93
Arzt 93
kom@@ 93
verbreitet 93
behandelt 93
Frei@@ 93
Mission 93
ult@@ 93
Feuer 93
Herausforderungen 93
art 93
une 93
kn@@ 93
Tre@@ 93
lo@@ 93
2006 93
Wörter 93
ile 93
Mama 93
fic@@ 93
avi 93
ento 93
prese 93
capite 93
dicevano 93
interessa 93
voglia 93
ciare 93
conseguenza 93
disponibile 93
malaria 93
mostrano 93
piede 93
artista 93
disponibili 93
buco 93
veri 93
occidentale 93
wen@@ 92
ace 92
erh@@ 92
ig 92
arbeiteten 92
September 92
Lehr@@ 92
wichtigste 92
wissenschaftliche 92
buchstäblich 92
habt 92
besitzen 92
wählen 92
eit@@ 92
Studien 92
verbreiten 92
Erfahrungen 92
seien 92
pflanzen 92
spiel 92
isiert 92
The@@ 92
schönen 92
Nehmen 92
super 92
ity 92
person@@ 92
vent@@ 92
presidente 92
dell’ 92
scelto 92
evitare 92
realizz@@ 92
pena 92
volevano 92
contiene 92
consapevolezza 92
Asia 92
onde 92
dov@@ 92
singola 92
prendiamo 92
consumo 92
Städten 91
Sorgen 91
Sol@@ 91
Hel@@ 91
Den 91
bezahlen 91
ack@@ 91
zufällig 91
erei 91
entwerfen 91
lebten 91
Bildern 91
My@@ 91
irgendetwas 91
alleine 91
tiger 91
Johnson 91
Sc@@ 91
keln 91
Osten 91
zug 91
fel@@ 91
Vergleich 91
gratis 91
könnt 91
scar@@ 91
Teilchen 91
Qual 91
uro 91
iva 91
accor@@ 91
lettera 91
zion@@ 91
isola 91
trasform@@ 91
organizzazioni 91
micro@@ 91
affascinante 91
ricordare 91
genoma 91
avver@@ 91
Giappone 91
straordinaria 91
rispon@@ 91
Quanti 91
Inghilterra 91
potenti 91
figlia 91
principi 91
intervento 91
cittadini 91
Quanto 91
carriera 91
barkeit 90
treiben 90
ß 90
kennt 90
17@@ 90
Fer@@ 90
esten 90
ack 90
weiteres 90
inen 90
lebte 90
Erd@@ 90
Aus 90
Krankenhaus 90
… 90
herunter@@ 90
Lied 90
gar@@ 90
Freunden 90
Steven 90
Gang 90
Charakter 90
G 90
bal@@ 90
moderna 90
profondamente 90
sicuramente 90
impar@@ 90
scimmie 90
medico 90
famoso 90
alismo 90
motivi 90
,@@ 89
industrie 89
Blut@@ 89
welchem 89
praktisch 89
verb@@ 89
hunderte 89
zellen 89
anne 89
ier 89
bild 89
viol@@ 89
ignor@@ 89
basiert 89
drüben 89
Lei@@ 89
reagieren 89
inv@@ 89
Ter@@ 89
drei@@ 89
volle 89
ändert 89
pri@@ 89
England 89
dert 89
linken 89
dist@@ 89
ta@@ 89
verfolgen 89
wissenschaftlichen 89
Pri@@ 89
26 89
sale 89
dirò 89
emissioni 89
vendere 89
conversazione 89
fantastica 89
continu@@ 89
Probabilmente 89
vedi 89
mett@@ 89
Volevo 89
segnale 89
moda 89
fossi 89
sabbia 89
Wieder@@ 88
Larry 88
verantwortlich 88
etti@@ 88
agen 88
darf 88
anische 88
ßt 88
ses 88
betrifft 88
Händen 88
grosse 88
kel 88
Daten@@ 88
bedeut@@ 88
zei@@ 88
raus@@ 88
unbedingt 88
wunderbare 88
-B@@ 88
entwickelte 88
ill@@ 88
University 88
lieber 88
fru@@ 88
ba@@ 88
mentale 88
up 88
gewonnen 88
kurzen 88
Buch@@ 88
ve@@ 88
reicht 88
Tor@@ 88
politische 88
oss@@ 88
tran@@ 88
izz@@ 88
YouTube 88
present@@ 88
presa 88
utilizz@@ 88
trasfer@@ 88
sfera 88
misurare 88
difficili 88
vantaggio 88
prendono 88
sequenza 88
scatola 88
fornire 88
notato 88
dica 88
suoni 88
tessuto 88
suon@@ 88
raccont@@ 88
entrambe 88
mortalità 88
dimostr@@ 88
movimenti 88
anten 87
Perspektive 87
Handy 87
äl@@ 87
erwartet 87
fühlte 87
partner 87
erster 87
nt 87
schafft 87
Boston 87
School 87
außerdem 87
überzeugt 87
weiteren 87
fen@@ 87
Dem@@ 87
Ki@@ 87
übertragen 87
Spiele 87
ße 87
osen 87
Irak 87
olog@@ 87
wieso 87
ege 87
vollkommen 87
Fisch 87
ativi 87
rebbe 87
disegnare 87
fiducia 87
naturali 87
Alcune 87
componenti 87
desider@@ 87
tivo 87
rimasto 87
potenza 87
affatto 87
pari 87
distribuzione 87
ernst 86
kung 86
modernen 86
nah@@ 86
Kor@@ 86
kümmern 86
morgen 86
bas@@ 86
höher 86
töten 86
unterschiedlichen 86
err@@ 86
hoffentlich 86
behalten 86
Schluss 86
Por@@ 86
worüber 86
Tur@@ 86
Gründen 86
passi@@ 86
rom@@ 86
Tochter 86
selber 86
losen 86
Ne@@ 86
id@@ 86
Phänomen 86
kommunizieren 86
Earth 86
Fenster 86
Stufe 86
lim@@ 86
vis@@ 86
anze 86
anim@@ 86
pubblic@@ 86
ovvero 86
perfettamente 86
tagli@@ 86
legno 86
tradizionale 86
capit@@ 86
tuttavia 86
giustizia 86
Spero 86
richiede 86
progettato 86
farsi 86
costruendo 86
comunicare 86
assimo 86
utenti 86
Sarebbe 86
appare 86
attacco 86
Naturalmente 86
rappresent@@ 86
scientifico 86
ficare 86
seduto 86
familiare 86
accadendo 86
Oppure 86
combattere 86
trasformazione 86
americana 86
metafora 86
letztendlich 85
achten 85
verhindern 85
Themen 85
organ@@ 85
23 85
Bedingungen 85
Spielen 85
ff 85
Tu 85
lag@@ 85
Präsident 85
wunder@@ 85
beeinflussen 85
abl@@ 85
gelesen 85
Frank 85
Bis 85
gefallen 85
wirst 85
Minute 85
wirken 85
heben 85
Etwas 85
gten 85
ise 85
dy 85
Fest@@ 85
lav@@ 85
efficace 85
catena 85
rivol@@ 85
comun@@ 85
dollaro 85
sostenere 85
comp@@ 85
atamente 85
dici 85
qualcos' 85
miglior 85
corsa 85
cambi@@ 85
caldo 85
ucci@@ 85
avranno 85
sogni 85
perciò 85
flusso 85
epidemia 85
attiv@@ 85
dovevo 85
vedendo 85
scom@@ 85
reazione 85
coscienza 85
reali 85
begeistert 84
besseren 84
Kat@@ 84
fängt 84
stri@@ 84
Vision 84
Großteil 84
las@@ 84
Sicherheits@@ 84
einge@@ 84
pfen 84
Kontakt 84
Meeres@@ 84
schalten 84
ling 84
eck 84
emente 84
dam@@ 84
Jede 84
65 84
moderne 84
beeinflusst 84
Erklärung 84
Ser@@ 84
Kontext 84
mern 84
Hirn@@ 84
chie@@ 84
.com 84
tot 84
überzeugen 84
ologe 84
teil 84
arten 84
Fu@@ 84
Großbritannien 84
improvviso 84
questioni 84
cato 84
idrogeno 84
dottore 84
progettare 84
Paese 84
cervelli 84
Paesi 84
nascita 84
sedia 84
aperta 84
lentamente 84
piena 84
Erfindung 83
Ti@@ 83
aktiv 83
Haiti 83
verk@@ 83
Kräfte 83
fte 83
notwendig 83
durchgeführt 83
gestorben 83
mac@@ 83
Präsentation 83
krank 83
versuchten 83
ama 83
120 83
ologen 83
Zelle 83
nutzt 83
gende 83
Architekten 83
saß 83
Street 83
tiv@@ 83
Zusammen@@ 83
ßen 83
musst 83
Werbung 83
Effekt 83
ag 83
Strukturen 83
natürlichen 83
Licht@@ 83
gro@@ 83
har@@ 83
lose 83
isten 83
Kam@@ 83
Pat@@ 83
Kampf 83
Kan@@ 83
grundlegende 83
Welche 83
cat@@ 83
Ruanda 83
atter@@ 83
Ant@@ 83
ici@@ 83
JH 83
fica 83
anzi 83
dando 83
suolo 83
corrente 83
ricordate 83
dallo 83
Potrebbe 83
credono 83
disegno 83
istica 83
ricchi 83
specifico 83
cellulari 83
farmaci 83
culturale 83
suonare 83
nonna 83
bambina 83
continuo 83
confini 83
bocca 83
prendete 83
allontan@@ 83
fondi 83
chiedo 83
presenta 83
erzähle 82
bezahlt 82
gend 82
leider 82
gel 82
armen 82
Bei@@ 82
recht@@ 82
bares 82
dauert 82
sowie 82
chtet 82
fördern 82
2004 82
Kommunikation 82
zählen 82
verst@@ 82
Rahmen 82
Center 82
State 82
rede 82
Verstand 82
egt 82
zer 82
gsten 82
alismus 82
greifen 82
Pa@@ 82
maschine 82
aner 82
Jungen 82
Min@@ 82
Wer@@ 82
licht 82
mus@@ 82
kürzlich 82
sur@@ 82
odi@@ 82
Benjamin 82
Vorfahren 82
Be 82
fianco 82
successivo 82
andai 82
trovate 82
ripet@@ 82
Nei 82
venga 82
viv@@ 82
aggiungere 82
corruzione 82
lasciate 82
andoci 82
quartiere 82
muoversi 82
altezza 82
gravità 82
c’ 82
schemi 82
montagne 82
cure 82
lezioni 82
raggi 82
proteggere 82
ponte 82
fiel 81
eil 81
bast@@ 81
28 81
brauche 81
lebens@@ 81
800 81
leb@@ 81
einiger 81
bt 81
deswegen 81
Raum@@ 81
Bank 81
bieten 81
abhängig 81
esen 81
ents 81
ak 81
Details 81
bemerkt 81
hohen 81
ion@@ 81
Bet@@ 81
Moleküle 81
gewisse 81
seite 81
hohe 81
Kerl 81
Ban@@ 81
22 81
Südafrika 81
ball@@ 81
Rau@@ 81
Ray 81
250 81
° 81
üt@@ 81
allen@@ 81
pure 81
marketing 81
positivo 81
consumatori 81
logica 81
scoperte 81
trattare 81
sotto@@ 81
riconoscere 81
vederlo 81
enze 81
ritmo 81
conosciuto 81
quadro 81
presenza 81
controll@@ 81
facevano 81
parlano 81
massimo 81
cadere 81
difficoltà 81
politico 81
personaggi 81
dürfen 80
tion@@ 80
ps 80
Kalifornien 80
flü@@ 80
nten 80
Verw@@ 80
eben@@ 80
unternehmen 80
ige 80
drin 80
Nichts 80
Ecke 80
dran 80
erstaunliche 80
Kern@@ 80
ogen@@ 80
Not@@ 80
lau@@ 80
sto@@ 80
ven 80
metter@@ 80
Proz@@ 80
Malaria 80
interessieren 80
Zivilisation 80
Videos 80
starb 80
lustig 80
Modelle 80
tief@@ 80
Kr@@ 80
Berg 80
Website 80
ove 80
Zwei@@ 80
Folge 80
Hollywood 80
telefon@@ 80
Ball@@ 80
prem@@ 80
fame 80
ex 80
farla 80
cucina 80
mobili 80
conta 80
dinamica 80
Niente 80
vai 80
lanciato 80
vinto 80
filmato 80
improvvisamente 80
Aveva 80
porto 80
vado 80
tanta 80
nomi 80
composto 80
terapia 80
scienze 80
aumentare 80
venivano 80
soldati 80
mattino 80
apprendimento 80
libero 80
rumore 80
interazione 80
quarto 80
ie@@ 79
Werkzeug 79
sit@@ 79
uc@@ 79
gelöst 79
hinter@@ 79
politischen 79
Zweitens 79
jährigen 79
entstanden 79
naja 79
ard@@ 79
Schn@@ 79
Männern 79
spüren 79
gewissen 79
haft 79
eingesetzt 79
Sein 79
PC 79
Telefon 79
Arbeiten 79
erfinden 79
Wil@@ 79
umgehen 79
igen 79
erhält 79
kämpfen 79
Sprachen 79
tende 79
las 79
Institute 79
klingt 79
deinen 79
--@@ 79
kreieren 79
Elemente 79
Individuen 79
laden 79
Win@@ 79
wenigen 79
otte 79
teile 79
farne 79
intr@@ 79
evit@@ 79
afrikanischen 79
getötet 79
n' 79
sugger@@ 79
coli 79
inizi@@ 79
fila 79
ecc@@ 79
atiche 79
profonda 79
rato 79
lettere 79
vetro 79
testo 79
pensava 79
istico 79
capi@@ 79
foc@@ 79
stica 79
ricco 79
ranno 79
Vogliamo 79
decisi 79
varietà 79
danza 79
esce 79
bellissimo 79
fratello 79
verwandeln 78
Eins 78
vollen 78
Markt@@ 78
län@@ 78
Emotionen 78
setzte 78
5000 78
morgens 78
verbracht 78
starten 78
fährt 78
Gottes 78
95 78
schlag 78
Kevin 78
Ganze 78
normalen 78
jährige 78
gkeit 78
Afrikas 78
radi@@ 78
dann@@ 78
hauptsächlich 78
halt 78
hinweg 78
Haus@@ 78
ka 78
Ben 78
frag@@ 78
Fällen 78
hängen 78
total 78
Del@@ 78
adi@@ 78
ay 78
ser 78
vo@@ 78
Mas@@ 78
fac@@ 78
brillante 78
Ci@@ 78
sap@@ 78
batt@@ 78
progettazione 78
imprenditori 78
mancanza 78
spaziale 78
sicuri 78
compagnie 78
Tra 78
museo 78
ovvio 78
guardo 78
ottenuto 78
uscito 78
bisogni 78
avendo 78
riesco 78
sapeva 78
Stanno 78
Eppure 78
Cos' 78
deci@@ 78
probabile 78
successiva 78
chiese 78
Lasciate 78
identità 78
molecola 78
Mir 77
tiges 77
Kontinent 77
zte 77
Außerdem 77
Unternehmer 77
Gegensatz 77
lass 77
schwarze 77
gef@@ 77
halb 77
baut 77
nis 77
ome 77
üs@@ 77
glich 77
berührt 77
Ot@@ 77
sion 77
Kann 77
Gemeinde 77
Ros@@ 77
Sind 77
psych@@ 77
falsche 77
solch 77
sam@@ 77
Gesellschaften 77
Schmerz 77
laut 77
Dun@@ 77
interagieren 77
Gesetze 77
lichsten 77
H 77
beantworten 77
nat@@ 77
epi@@ 77
Spieler 77
fat@@ 77
senti@@ 77
usi 77
M 77
LG 77
sup@@ 77
cas@@ 77
puo 77
ottimo 77
ossia 77
tecnica 77
cercano 77
Siete 77
trasformare 77
funzionato 77
ciclo 77
semplicità 77
sorpresa 77
prezzi 77
viamo 77
osservando 77
perdita 77
deserto 77
individuo 77
dipende 77
ficazione 77
tendenza 77
completa 77
speci@@ 77
elemento 77
centri 77
dispositivo 77
madri 77
Problemen 76
rechte 76
entspricht 76
brauchten 76
Beg@@ 76
gelassen 76
Forschungs@@ 76
29 76
enzi@@ 76
lige 76
Jemand 76
zunächst 76
Mat@@ 76
utt@@ 76
Mittel@@ 76
Zero 76
Eindruck 76
Island 76
dig@@ 76
mei@@ 76
berg 76
date 76
red@@ 76
meg@@ 76
pac@@ 76
King 76
Gest@@ 76
Cer@@ 76
atten@@ 76
Geld@@ 76
/@@ 76
vin@@ 76
Ober@@ 76
king 76
mol@@ 76
ut 76
gene 76
ela 76
ren 76
Lasst 76
Institutionen 76
prom@@ 76
spiele 76
Kenya 76
Devi 76
sembr@@ 76
calcolo 76
evi 76
scienziato 76
conosce 76
usati 76
impresa 76
potrà 76
conoscono 76
usate 76
Voi 76
supporto 76
segnali 76
necessariamente 76
evamo 76
alizzato 76
calore 76
sano 76
Senza 76
immaginate 76
quadrato 76
cominciano 76
fattori 76
sosten@@ 76
dura 76
leggermente 76
mitten 75
feld 75
Cor@@ 75
fragten 75
Unterstützung 75
äm@@ 75
ater 75
entworfen 75
mung 75
Generationen 75
2003 75
inspiriert 75
assen 75
Richtig 75
Telefon@@ 75
Go@@ 75
gebeten 75
hel@@ 75
zig 75
Qualität 75
bitten 75
Pol@@ 75
700 75
sei@@ 75
JA 75
Seine 75
spielte 75
somit 75
Theater 75
erscheinen 75
atur@@ 75
itzen 75
Ausdruck 75
brachten 75
Ten@@ 75
erkennt 75
Obwohl 75
trotz 75
me@@ 75
verbindet 75
gefährlich 75
Wirtschafts@@ 75
pun@@ 75
oni@@ 75
allerdings 75
rufen 75
Mütter 75
rig@@ 75
sent@@ 75
eli 75
Mia 75
mise 75
pensai 75
potevamo 75
dibattito 75
alista 75
iniziando 75
passi 75
invenzione 75
cambio 75
doppio 75
interessati 75
ebbero 75
artificiale 75
cant@@ 75
autore 75
accett@@ 75
pietra 75
pericoloso 75
fondamentali 75
capelli 75
cerchio 75
percezione 75
ascolt@@ 75
equilibrio 75
colpo 75
altrimenti 75
conflitto 75
autorità 75
pesca 75
Monterey 74
zul@@ 74
Nutzen 74
Wandel 74
Zusammenarbeit 74
Fernseh@@ 74
arr@@ 74
starke 74
stoff 74
euer 74
Leistung 74
weder 74
Radi@@ 74
Fach@@ 74
Zitat 74
Ir@@ 74
chung 74
nah 74
Ph@@ 74
Hallo 74
sam 74
zäh@@ 74
erscheint 74
stern 74
vorne 74
Westen 74
Mikro@@ 74
dest@@ 74
Elektrizität 74
meistens 74
höre 74
stein 74
annt 74
za 74
Musik@@ 74
acht@@ 74
Men@@ 74
Regen@@ 74
sicht 74
eck@@ 74
iger 74
ku@@ 74
Begriff 74
hinten 74
No@@ 74
Kreis 74
ähnliche 74
unden 74
Feld 74
y-@@ 74
amb@@ 74
La@@ 74
haus 74
gehabt 74
Geh@@ 74
sel 74
Netzwerke 74
Ozeane 74
lat@@ 74
Ste@@ 74
domin@@ 74
post 74
azz@@ 74
scor@@ 74
dettaglio 74
succedere 74
mezzi 74
potremo 74
spettacolo 74
faranno 74
debba 74
economici 74
civile 74
rapida 74
impegno 74
Potreste 74
lascia 74
accaduto 74
facevo 74
arrivo 74
Cosi 74
processi 74
copia 74
direttore 74
noto 74
sicura 74
considerazione 74
foreste 74
specchio 74
saremo 74
spiegazione 74
prendendo 74
viventi 74
piacciono 74
statistiche 74
izzazione 74
antenati 74
creatura 74
hand@@ 73
mögliche 73
stammt 73
gefällt 73
Einfachheit 73
gäbe 73
müsste 73
Mer@@ 73
sowas 73
haften 73
täglich 73
ener@@ 73
Mad@@ 73
gerät 73
wobei 73
kg 73
trinken 73
häufig 73
studieren 73
muster 73
eh 73
selbst@@ 73
College 73
stolz 73
uch 73
Nationen 73
Folie 73
Ac@@ 73
les 73
äch@@ 73
« 73
» 73
leben@@ 73
Wahrnehmung 73
gol@@ 73
existieren 73
bedeuten 73
let@@ 73
mand@@ 73
Don@@ 73
otten@@ 73
Titel 73
program@@ 73
bor@@ 73
spin@@ 73
gio 73
agli@@ 73
belle 73
disper@@ 73
pronti 73
situazioni 73
portando 73
assistenza 73
poste 73
succederà 73
generazioni 73
aerei 73
evoli 73
resi 73
metro 73
centr@@ 73
Cioè 73
punt@@ 73
orologio 73
cambiando 73
alti 73
barca 73
forti 73
televisione 73
qualcun 73
trattamento 73
atomi 73
ché 73
scientifica 73
conti 73
oscura 73
ricorda 73
vuoto 73
strategia 73
spettro 73
stella 73
cav@@ 73
Ebbene 73
simmetria 73
dan@@ 72
Insel 72
Gegend 72
Einsatz 72
gelebt 72
Gewicht 72
Gefahr 72
seh@@ 72
wichtigen 72
geschickt 72
bekamen 72
pt@@ 72
abel 72
Nachbarn 72
Entdeckung 72
Experimente 72
elten 72
prozess 72
Grenze 72
Rand 72
-L@@ 72
hierher 72
14@@ 72
gelegt 72
amp@@ 72
normal 72
Klasse 72
cm 72
Rücken 72
Big 72
Stanford 72
gefähr@@ 72
mann 72
welt 72
Spi@@ 72
üh@@ 72
55 72
besondere 72
individu@@ 72
Lin@@ 72
Port@@ 72
rac@@ 72
Test 72
neg@@ 72
ota 72
wisst 72
anda 72
az@@ 72
Achse 72
manifest@@ 72
atta 72
Mondiale 72
siccome 72
altrettanto 72
manten@@ 72
responsabile 72
elettr@@ 72
fonti 72
parlava 72
necessità 72
regol@@ 72
maggioranza 72
divenne 72
conoscete 72
pensieri 72
espressione 72
asc@@ 72
definire 72
normalmente 72
segreto 72
Uomo 72
larga 72
esperti 72
passati 72
muov@@ 72
pubblicato 72
prefer@@ 72
concentr@@ 72
arrivata 72
opinione 72
ù 72
Tuttavia 72
rivista 72
sentono 72
considerare 72
mangi@@ 72
sanitario 72
sch 71
neutr@@ 71
invest@@ 71
Nutz@@ 71
Landschaft 71
stru@@ 71
ebe 71
funktion@@ 71
Wright 71
beschäftigen 71
hoffen 71
gegründet 71
dungen 71
Moore 71
plat@@ 71
Op@@ 71
Ansicht 71
spos@@ 71
etten 71
spezi@@ 71
Bes@@ 71
Zucker 71
arm 71
ings 71
On@@ 71
Kal@@ 71
Zuerst 71
schaute 71
eni@@ 71
gesund 71
Rätsel 71
wasser 71
Cambridge 71
Brian 71
heisst 71
osp@@ 71
dige 71
rische 71
relativ 71
autom@@ 71
hafte 71
Pf@@ 71
wen 71
früh 71
Ausbildung 71
verfügbar 71
omet@@ 71
od@@ 71
esser@@ 71
äh@@ 71
Har@@ 71
dir@@ 71
Brown 71
Jill 71
nas@@ 71
email 71
lam@@ 71
2009 71
distribu@@ 71
aia 71
scarpe 71
producono 71
mandare 71
volontà 71
impegn@@ 71
decine 71
aspetta 71
tratti 71
ciamo 71
fede 71
sopravvivenza 71
sufficiente 71
Dov@@ 71
comprato 71
detti 71
messa 71
efficiente 71
polizia 71
cammin@@ 71
dieta 71
fili 71
ossa 71
raccolto 71
riman@@ 71
Università 71
conserv@@ 71
dubbio 71
alizzare 71
usata 71
rimanere 71
cifre 71
aprire 71
fuhr 70
projekt 70
langer 70
itäten 70
Verbreitung 70
ansieht 70
Kindheit 70
gehören 70
ton@@ 70
welchen 70
Krise 70
realen 70
bat 70
Manhattan 70
Bedürfnisse 70
ters 70
wirk@@ 70
Golf 70
glaubt 70
standen 70
bestimmen 70
nannte 70
igkeit 70
Fleisch 70
Geburt 70
Professor 70
stoffen 70
esist@@ 70
eder@@ 70
springen 70
ingen 70
wenden 70
Ges@@ 70
Drittel 70
sprachen 70
erkannte 70
Zeitung 70
20.000 70
inst@@ 70
au 70
Fre@@ 70
ander@@ 70
Cal@@ 70
lte 70
som@@ 70
Bruder 70
Lan@@ 70
gran@@ 70
Ah@@ 70
Everest 70
orn@@ 70
predi@@ 70
color@@ 70
Davvero 70
combinazione 70
poter@@ 70
piatto 70
temi 70
fratelli 70
itori 70
registr@@ 70
dover 70
laggiù 70
eggi@@ 70
potessero 70
culture 70
incontrare 70
superiori 70
esplor@@ 70
vino 70
all’ 70
zzato 70
Insomma 70
connessioni 70
esercito 70
abitanti 70
verific@@ 70
cost@@ 70
paesaggio 70
confronto 70
eroi 70
palla 70
psicologia 70
orientale 70
hän@@ 69
barer 69
stoffe 69
Teil@@ 69
alisieren 69
Todes@@ 69
Wunder 69
dahin 69
ett 69
nen@@ 69
etc. 69
Diskussion 69
Bildungs@@ 69
Andere 69
Stadt@@ 69
nern 69
isierung 69
195@@ 69
eder 69
ände 69
Zweck 69
Ton 69
wesentlich 69
fassen 69
Funktion 69
deten 69
berichten 69
Gesamt@@ 69
Nachdem 69
Nahrungs@@ 69
origin@@ 69
set 69
Geräte 69
fre@@ 69
Jim 69
wirkliche 69
yn@@ 69
Schimpansen 69
Hinsicht 69
halbe 69
dunkle 69
chern 69
Gutes 69
fur@@ 69
beobachtet 69
Wüste 69
Weile 69
nisse 69
uner@@ 69
85 69
Mos@@ 69
Kaffee 69
Schwierigkeiten 69
schule 69
teuer 69
bekannten 69
Wieso 69
perfekt 69
Tab@@ 69
wahr@@ 69
Bereichen 69
atoren 69
schlag@@ 69
sta@@ 69
Gras 69
prä@@ 69
Wel@@ 69
onore 69
otter@@ 69
pic@@ 69
bere 69
note 69
Delhi 69
zzi 69
invent@@ 69
zie 69
Gran 69
bravi 69
ettare 69
portati 69
accanto 69
notevole 69
portatile 69
esti 69
Nazioni 69
riferimento 69
completo 69
complessa 69
consu@@ 69
rebbero 69
guardato 69
dità 69
vecchie 69
gioia 69
certe 69
nutr@@ 69
percentuale 69
contenuti 69
perfetta 69
chieder@@ 69
dottori 69
pronto 69
mettendo 69
normali 69
strana 69
compren@@ 69
prender@@ 69
tradizionali 69
dimostrare 69
ampio 69
luci 69
zampe 69
zel@@ 68
land@@ 68
egel 68
Entwicklungs@@ 68
aufbauen 68
Ausmaß 68
kurzem 68
Über 68
hinzu@@ 68
zerstören 68
Bildschirm 68
Web@@ 68
lig 68
Gates 68
schlimmer 68
Mac@@ 68
Seit 68
problem 68
unabhängig 68
milli@@ 68
Fuß@@ 68
ote 68
Kulturen 68
1960 68
genauer 68
Lernen 68
Neuronen 68
W 68
Mr 68
Bil@@ 68
lichem 68
Karriere 68
spi@@ 68
rä@@ 68
nötig 68
rov@@ 68
soviel 68
bahn 68
ue 68
Sur@@ 68
oll 68
Bewegungen 68
af@@ 68
cc@@ 68
budget 68
Acc@@ 68
soff@@ 68
itore 68
iPhone 68
otti 68
veicolo 68
andò 68
volevamo 68
izzato 68
girare 68
benefici 68
Primo 68
sistem@@ 68
duro 68
internazionale 68
ricev@@ 68
dovreste 68
invisibile 68
ricevere 68
eccitante 68
interfaccia 68
continuamente 68
venuti 68
Avevamo 68
gestire 68
proc@@ 68
osamente 68
formare 68
permettere 68
lingue 68
opere 68
ficato 68
addirittura 68
giornali 68
direi 68
parco 68
costante 68
sanità 68
videogiochi 68
uova 68
dinosauri 68
origami 68
Klima@@ 67
Ford 67
Familien@@ 67
weißen 67
Zunächst 67
reduzieren 67
ierung 67
persönlich 67
Entwicklungsländern 67
führten 67
Basis 67
denk@@ 67
Tausende 67
kre@@ 67
ek 67
itz@@ 67
gründen 67
geändert 67
eigen@@ 67
Code 67
führung 67
unterscheiden 67
bau 67
Gute 67
landen 67
bekomme 67
erwähnt 67
klasse 67
wechseln 67
verschwinden 67
"-@@ 67
aro 67
Augenblick 67
annehmen 67
roten 67
Linien 67
Temperatur 67
Bra@@ 67
schul@@ 67
strategie 67
Drei@@ 67
schwimmen 67
lichkeiten 67
deut@@ 67
traditionellen 67
Zauber@@ 67
Kenia 67
Ide@@ 67
ria 67
ull@@ 67
Hans 67
interpret@@ 67
Maßstab 67
sco@@ 67
eria 67
indica 67
irono 67
alizz@@ 67
zucchero 67
lanciare 67
Unite 67
scu@@ 67
anima 67
D' 67
basato 67
assembl@@ 67
soci@@ 67
Proprio 67
isca 67
dispiace 67
sbagliata 67
architetto 67
sebbene 67
chiamare 67
muovere 67
spalle 67
precedente 67
tentativo 67
interessi 67
consiste 67
peggiore 67
correre 67
occasione 67
musicale 67
perfino 67
carica 67
Erkenntnis 66
alis@@ 66
Wirklich 66
net 66
Durch 66
nützlich 66
dene 66
beibringen 66
wirtschaft 66
Bürger@@ 66
äußerst 66
tritt 66
zeichnet 66
lage 66
dennoch 66
scher 66
lang@@ 66
Dabei 66
hy@@ 66
ock@@ 66
rief 66
Klang 66
übrig 66
nei@@ 66
unterstützt 66
heits@@ 66
dlich 66
Plan@@ 66
einsetzen 66
Mis@@ 66
nete 66
isch@@ 66
Eigentlich 66
dia 66
ach 66
nett 66
zeiten 66
Helden 66
erstellt 66
ierende 66
oo@@ 66
kompliziert 66
moder@@ 66
Show 66
wuchs 66
stes 66
drücken 66
front@@ 66
cl@@ 66
Deswegen 66
Regionen 66
15@@ 66
aggressi@@ 66
arm@@ 66
gal@@ 66
uman@@ 66
Fisch@@ 66
hu@@ 66
liert 66
stag@@ 66
batter@@ 66
Grande 66
esa 66
Sole 66
Milo 66
miglior@@ 66
tornato 66
diventati 66
Potremmo 66
titolo 66
tecniche 66
lavoriamo 66
barriere 66
calda 66
capisco 66
conver@@ 66
finestra 66
conosco 66
tetto 66
Sai 66
porti 66
insomma 66
scimpanzé 66
ivano 66
posizioni 66
iniziano 66
strati 66
Quelli 66
giornale 66
volto 66
equazione 66
permettono 66
piramide 66
ricercatori 66
esperto 66
obiettivi 66
tonnellate 66
giocatori 66
caffè 66
eme 65
zogen 65
lieren 65
Grundlage 65
Handel 65
kr@@ 65
Ghana 65
wirtschaftliche 65
wirtschaftlichen 65
selten 65
folgt 65
ave 65
2020 65
Bob 65
bew@@ 65
buch 65
Seele 65
Viren 65
pet@@ 65
Blut 65
zugänglich 65
träge 65
Wo@@ 65
Sand@@ 65
schreibt 65
gruppe 65
Rick 65
ess 65
Bau 65
kern 65
getragen 65
Epidemie 65
evol@@ 65
Industri@@ 65
din 65
geworfen 65
Stand 65
Hall 65
Gol@@ 65
welt@@ 65
hol@@ 65
aci@@ 65
ossen 65
ast 65
Stephen 65
eiten 65
stattdessen 65
0er 65
aufge@@ 65
Les@@ 65
zus@@ 65
El 65
Beweis 65
tro@@ 65
Kein 65
fäl@@ 65
33 65
Sir 65
Nan@@ 65
teilt 65
cen@@ 65
separ@@ 65
Phase 65
star 65
pur@@ 65
WK 65
diri@@ 65
Circa 65
collega 65
ricchezza 65
raccontarvi 65
olio 65
grano 65
acque 65
coinvol@@ 65
cavallo 65
traffico 65
commercio 65
progressi 65
costitu@@ 65
Sarà 65
orbita 65
precedenti 65
compet@@ 65
derà 65
stico 65
conclusione 65
ottiene 65
iranno 65
incoraggi@@ 65
mandato 65
cattiva 65
andava 65
sostanzialmente 65
scendere 65
crescono 65
potessimo 65
genetica 65
gett@@ 65
depressione 65
cani 65
Quali 65
venti 65
scri@@ 65
visiva 65
corpi 65
vecchi 65
complicato 65
bottiglia 65
previsioni 65
frequenza 65
tratto 65
Golfo 65
ingran@@ 65
wahre 64
US-@@ 64
ange 64
Kombination 64
arb@@ 64
bietet 64
hab@@ 64
grundsätzlich 64
seid 64
Korruption 64
Design@@ 64
aufzubauen 64
Sputnik 64
gebraucht 64
Air@@ 64
gekauft 64
beschreibt 64
essi@@ 64
Lieblings@@ 64
lediglich 64
vergleichen 64
Sor@@ 64
Test@@ 64
derer 64
Jahr@@ 64
ons 64
automatisch 64
lungs@@ 64
aufgebaut 64
Regierungs@@ 64
Ausstellung 64
Tonnen 64
ischem 64
aufregend 64
Lau@@ 64
enn@@ 64
ähnlichen 64
ash@@ 64
Mehr 64
schlechten 64
menschliches 64
verbrachte 64
tag@@ 64
Bereiche 64
fiori 64
Strategie 64
Gefängnis 64
Verhältnis 64
vit@@ 64
eff@@ 64
dritten 64
verg@@ 64
Dimensionen 64
otta 64
seltsam 64
aste 64
Metapher 64
Long 64
ago 64
Newton 64
pian@@ 64
Lincoln 64
salire 64
cena 64
chiuso 64
esta 64
cresce 64
riuscite 64
triste 64
crescendo 64
domani 64
neve 64
denza 64
assieme 64
Disse 64
rappresentano 64
avessimo 64
inizi 64
applic@@ 64
muoiono 64
golf 64
dano 64
raggio 64
curva 64
comportamenti 64
eliminare 64
Brasile 64
magia 64
medici 64
zzo 64
icità 64
presi 64
descrivere 64
nata 64
nucleari 64
nido 64
Natale 64
setzten 63
eno 63
abge@@ 63
Politiker 63
Nation 63
strateg@@ 63
erlebt 63
Annahme 63
aufhören 63
bloß 63
197@@ 63
assi@@ 63
anfing 63
Existenz 63
entdeckte 63
unglaublichen 63
lit@@ 63
Norden 63
Mut@@ 63
versteht 63
Ihres 63
Tim 63
itten 63
tier@@ 63
danken 63
lernt 63
Innen@@ 63
rat 63
F 63
Forscher 63
rum@@ 63
linge 63
beinahe 63
Potenzial 63
weißt 63
Stuhl 63
Damals 63
Bus@@ 63
bereich 63
verteilt 63
iten 63
ät 63
Kameras 63
daten 63
ras@@ 63
offen@@ 63
modell 63
Beweise 63
erkannt 63
raum 63
fehlt 63
Laden 63
Homo 63
Lego 63
aer@@ 63
isol@@ 63
Lewis 63
Bibel 63
.... 63
Küste 63
emer@@ 63
aio 63
gui@@ 63
Dovete 63
attiva 63
infinito 63
collaborazione 63
decisamente 63
iniziò 63
bordo 63
fecero 63
figura 63
organismo 63
vaiolo 63
piant@@ 63
proi@@ 63
amica 63
Dal 63
egli 63
partecipare 63
coinvolti 63
fermare 63
saggezza 63
tiene 63
sessuale 63
torn@@ 63
trattava 63
arrivando 63
popolare 63
insegnamento 63
scen@@ 63
polvere 63
cattivo 63
largo 63
visita 63
lassù 63
crede 63
Informations@@ 62
atmen 62
Holz@@ 62
Aspekt 62
durchführen 62
Welten 62
Designs 62
Schlüssel 62
dit@@ 62
priv@@ 62
30.000 62
soweit 62
ow 62
ck 62
Zimmer 62
wel@@ 62
besitzt 62
Sonnenlicht 62
50.000 62
fig@@ 62
Stücke 62
komplexe 62
schrecklich 62
pur 62
magnet@@ 62
Gegenteil 62
West 62
richtung 62
schlechter 62
Fälle 62
emp@@ 62
Kopf@@ 62
zerstört 62
schaue 62
Großmutter 62
Science 62
Resultat 62
reisen 62
Seh@@ 62
Beim 62
raten 62
Silicon 62
froh 62
Mont@@ 62
Char@@ 62
sau@@ 62
dig 62
Inhalt 62
Cap@@ 62
sion@@ 62
tigkeit 62
Studio 62
bemerken 62
band 62
Sozial@@ 62
Tro@@ 62
nungs@@ 62
fingen 62
Lab 62
Brücke 62
Instrument 62
Pfund 62
Gerechtigkeit 62
Afrikaner 62
tot@@ 62
spen@@ 62
tab@@ 62
chip 62
entare 62
illustr@@ 62
acquis@@ 62
quanta 62
siate 62
stiano 62
infinite 62
zionale 62
pre 62
Bisogna 62
settembre 62
infrastrutture 62
irsi 62
centesimi 62
ispirazione 62
etico 62
mezza 62
fasi 62
aggiun@@ 62
basata 62
chiamate 62
ferma 62
essimo 62
lotta 62
cano 62
giardino 62
biologico 62
isci 62
ioni 62
Facciamo 62
amolo 62
Stavo 62
debole 62
sostiene 62
bilità 62
cause 62
coltivare 62
motori 62
sfondo 62
stieg 61
0,@@ 61
steuern 61
effektiv 61
persönlichen 61
außen 61
Kohle 61
schte 61
Anwendung 61
trau@@ 61
arme 61
öffentliche 61
mö@@ 61
bung 61
Baum@@ 61
programm 61
überrascht 61
bur@@ 61
Zeichen 61
grün@@ 61
Satz 61
Kriegs@@ 61
Sogar 61
Mö@@ 61
Foundation 61
Maus 61
hieß 61
Programme 61
d-@@ 61
iPod 61
les@@ 61
anwenden 61
Beste 61
sinn@@ 61
Wettbewerb 61
Erlebnis 61
Stu@@ 61
Definition 61
Dean 61
missi@@ 61
Mach@@ 61
Ernährung 61
trop@@ 61
Laufe 61
gegenseitig 61
angesehen 61
bildung 61
Florida 61
Rob@@ 61
beschlossen 61
anzi@@ 61
bio@@ 61
deln 61
perfekte 61
U 61
systems 61
ril@@ 61
alter@@ 61
chs 61
oma 61
eg 61
Methoden 61
Leg@@ 61
motiv@@ 61
ics 61
schei@@ 61
beinhaltet 61
markt 61
Öffentlichkeit 61
grund 61
Molekül 61
chem@@ 61
eter 61
zurückzu@@ 61
2.000 61
Energie@@ 61
Null 61
3.@@ 61
fotograf@@ 61
Pet@@ 61
wä@@ 61
ima 61
47 61
prof@@ 61
stat@@ 61
Adam 61
3D 61
bit@@ 61
mont@@ 61
odore 61
mappe 61
Donna 61
Polo 61
foglio 61
aggi@@ 61
efficienza 61
riun@@ 61
calcol@@ 61
architetti 61
cerebrale 61
utili 61
rischi 61
rare 61
osservato 61
occup@@ 61
condivi@@ 61
crit@@ 61
Nell' 61
cominciò 61
ritir@@ 61
sentite 61
metti 61
pranzo 61
insetti 61
recentemente 61
cerco 61
riflettere 61
formato 61
seriamente 61
carburante 61
sottile 61
entrano 61
sostanze 61
vincere 61
scrisse 61
cerchi 61
Messico 61
finita 61
uguale 61
battaglia 61
fumetti 61
rilev@@ 61
prendo 61
Tau@@ 60
Ganz 60
Vorteil 60
erungen 60
geber 60
verwandelt 60
gefangen 60
Milli@@ 60
aut 60
anschaut 60
Pop@@ 60
Vertrauen 60
ros@@ 60
lebenden 60
definieren 60
beweisen 60
Produktion 60
Sprach@@ 60
Wor@@ 60
ran 60
schien 60
fe@@ 60
Aufgaben 60
digitalen 60
Jedenfalls 60
Hotel 60
Mund 60
dauern 60
Spezi@@ 60
moralische 60
Mensch@@ 60
kur@@ 60
Pic@@ 60
stim@@ 60
Schwester 60
heit@@ 60
elen 60
Aufnahme 60
William 60
Vorstellungen 60
Patient 60
Entfernung 60
arg@@ 60
plan@@ 60
Trans@@ 60
3.000 60
Kirche 60
auti@@ 60
raff@@ 60
2010 60
durchschnittliche 60
win 60
Tiefe 60
enorm 60
ins@@ 60
willst 60
Ereignis 60
reag@@ 60
Wind@@ 60
Freundin 60
K 60
rap@@ 60
van@@ 60
quad@@ 60
tener@@ 60
auto@@ 60
SETI 60
glia 60
Pensavo 60
investimenti 60
personali 60
progett@@ 60
assenza 60
decennio 60
superare 60
ragazzino 60
successe 60
sapevamo 60
rappresentazione 60
intenzione 60
chiedendo 60
zze 60
Durante 60
riamo 60
costr@@ 60
ciato 60
radici 60
folle 60
distruzione 60
condizione 60
offrire 60
vidi 60
voluti 60
ultime 60
versi 60
formica 60
durata 60
marito 60
voler 60
conten@@ 60
cresciuta 60
positiva 60
grossa 60
Ve 60
dimostra 60
povero 60
respiro 60
Pensiamo 60
colonia 60
confer@@ 60
Bibbia 60
Trau@@ 59
Anteil 59
sparen 59
nahme 59
vermitteln 59
Potential 59
rei 59
din@@ 59
Abl@@ 59
aufs 59
getrennt 59
Cent 59
großartigen 59
Gar@@ 59
ore@@ 59
eit 59
folgende 59
Tran@@ 59
Glas@@ 59
besorgt 59
biologischen 59
Wesentlichen 59
kannte 59
zes 59
attra@@ 59
baute 59
Boot 59
teren 59
zur@@ 59
internationalen 59
Nachbarschaft 59
emo@@ 59
Zw@@ 59
Spiegel 59
zunehmen 59
Vögel 59
Stein@@ 59
Frieden 59
Prof@@ 59
elimin@@ 59
suchte 59
glaubte 59
druc@@ 59
hö@@ 59
spezielle 59
intu@@ 59
Star 59
Polizei 59
digit@@ 59
tigt 59
Yeah 59
Samen 59
Tu@@ 59
vorzustellen 59
Stattdessen 59
brach 59
wa 59
leiten 59
Statistiken 59
Werk 59
General 59
0ern 59
ideale 59
besuchen 59
zier@@ 59
zit@@ 59
uti@@ 59
lament@@ 59
Ap@@ 59
untersucht 59
angeht 59
unterrichten 59
Jack 59
e-- 59
Wirkung 59
eso 59
vasi 59
fantasma 59
iera 59
evate 59
restare 59
consiglio 59
amano 59
ricca 59
permett@@ 59
riusci@@ 59
esplorazione 59
nera 59
scorsa 59
banca 59
verrà 59
muovono 59
citazione 59
spendere 59
essendo 59
Magari 59
Pacifico 59
chiudere 59
detta 59
accompag@@ 59
icato 59
dirlo 59
abbiate 59
opposto 59
gara 59
arie 59
infanzia 59
coltiv@@ 59
andrà 59
un’ 59
dovrei 59
ecosistema 59
sarete 59
grafica 59
prigione 59
inferiore 59
entrata 59
siti 59
itano 59
organi 59
medicine 59
invi@@ 59
Andiamo 59
teilweise 58
hielten 58
Mitarbeiter 58
Drei 58
Erst 58
zeichen 58
Innovationen 58
Mai 58
Smith 58
Mengen 58
dieselben 58
Zei@@ 58
Sta@@ 58
Armen 58
ogen 58
line 58
ersetzen 58
ernsthaft 58
lieb@@ 58
Genom 58
Stiftung 58
Pan@@ 58
mus 58
erweitern 58
freie 58
zählt 58
Sti@@ 58
sene 58
0-@@ 58
mitt@@ 58
bewegung 58
vorhanden 58
Mem@@ 58
schu@@ 58
druck 58
leiden 58
Verhaltens@@ 58
schlafen 58
Alzheimer 58
Süd@@ 58
trei@@ 58
persönliche 58
Geschäfts@@ 58
stärker 58
bende 58
orie 58
graben 58
bru@@ 58
ebene 58
Fel@@ 58
stor@@ 58
weiterer 58
stra@@ 58
cr@@ 58
werke 58
ografie 58
wieviel 58
schneiden 58
heißen 58
Bal@@ 58
platz 58
messe 58
müssten 58
vitale 58
verstehe 58
höhere 58
Gas 58
Prinzipien 58
ulare 58
net@@ 58
Sand 58
Arthur 58
Bürger 58
Lo@@ 58
pir@@ 58
Verstehen 58
Dinosaurier 58
Psychologie 58
Wann 58
interag@@ 58
sop@@ 58
care 58
Symmetrie 58
latte 58
Pres@@ 58
aver@@ 58
temporale 58
acca 58
dolce 58
svegli@@ 58
ipotesi 58
fattore 58
fossili 58
verdi 58
popolo 58
generare 58
soggetto 58
Americani 58
anch' 58
selezione 58
caccia 58
viaggiare 58
vestiti 58
spinge 58
confront@@ 58
asi 58
issimi 58
rai 58
darsi 58
raggiung@@ 58
piaceva 58
piattaforma 58
tà 58
volume 58
vittime 58
nave 58
tenuto 58
colpisce 58
diretta 58
riten@@ 58
ambienti 58
tumore 58
Natura 58
ancor 58
visivo 58
sezione 58
dappertutto 58
trucco 58
canto 58
guardano 58
ologi 58
sorella 58
ogli 58
guerre 58
fisici 58
descri@@ 58
meccanismo 58
dimostrazione 58
finisce 58
tridimensionale 58
curare 58
borsa 58
aiutato 58
crimine 58
Aut@@ 57
einiges 57
genden 57
Unterhaltung 57
einfaches 57
stabil@@ 57
Staat 57
bereit@@ 57
kraft@@ 57
Deutschland 57
arbeit 57
dauerte 57
behaupten 57
itze 57
Überleben 57
auff@@ 57
up@@ 57
Craig 57
sequenzi@@ 57
Fil@@ 57
blau 57
darstellt 57
biologische 57
mittels 57
seltsame 57
lö@@ 57
Witz 57
Bis@@ 57
appe 57
Ta@@ 57
Fakten 57
vertraut 57
stei@@ 57
Ton@@ 57
konzentriert 57
Besch@@ 57
Wurzeln 57
alisiert 57
Einen 57
spät 57
dungs@@ 57
kos@@ 57
Webseite 57
blieb 57
Me@@ 57
omat@@ 57
nar@@ 57
malen 57
Spe@@ 57
tlich 57
lern 57
Gleichung 57
freien 57
Knochen 57
gerettet 57
Dr@@ 57
stati@@ 57
verschwunden 57
Krieges 57
over@@ 57
glob@@ 57
profession@@ 57
stimmen 57
gs 57
Meg@@ 57
krat@@ 57
Lachen 57
anc@@ 57
Euch 57
vagina 57
divi@@ 57
nor@@ 57
Fac@@ 57
Can@@ 57
possi@@ 57
Mike 57
multi@@ 57
Mamma 57
lio 57
eti 57
ristorante 57
demmo 57
arrivò 57
danni 57
sforzo 57
cart@@ 57
campioni 57
Possono 57
Quale 57
discutere 57
compiti 57
imprese 57
equivalente 57
raggiun@@ 57
costru@@ 57
tendono 57
convincere 57
nati 57
disegni 57
ficata 57
colo 57
complessi 57
messaggi 57
limite 57
capita 57
icata 57
cri@@ 57
mato 57
cond@@ 57
risolto 57
utilizzato 57
ricon@@ 57
Australia 57
rispose 57
muover@@ 57
formano 57
affer@@ 57
collabor@@ 57
creiamo 57
ispir@@ 57
sostenibilità 57
polline 57
decenni 57
calcoli 57
corteccia 57
ampia 57
investire 57
teorie 57
buio 57
Su 57
bomba 57
fabbrica 57
povera 57
presso 57
emisfero 57
carte 57
solcher 56
Clinton 56
positiv 56
Invest@@ 56
wofür 56
altern@@ 56
verbessert 56
Ingenieure 56
angen 56
voraus@@ 56
leid 56
Son@@ 56
Auswahl 56
Vorstellungskraft 56
tigung 56
Nase 56
Fr@@ 56
Nieder@@ 56
Ob 56
New@@ 56
gewisser 56
gemeinsamen 56
Folgendes 56
echter 56
jener 56
besagt 56
zierten 56
unterschiedlich 56
wasser@@ 56
bezüglich 56
utz@@ 56
fähigkeit 56
darstellen 56
gewählt 56
Mac 56
Kil@@ 56
sig 56
schrei@@ 56
legte 56
Kont@@ 56
ekt@@ 56
350 56
AR@@ 56
vergangenen 56
medizinische 56
uh 56
halt@@ 56
herr@@ 56
Australien 56
Körpers 56
wirkt 56
nachgedacht 56
aufgewachsen 56
Flu@@ 56
bestand 56
lasst 56
Fünf 56
Kreu@@ 56
Würde 56
schüt@@ 56
Art. 56
teil@@ 56
vierte 56
Träume 56
komplex 56
Gemein@@ 56
organisieren 56
Identität 56
wovon 56
ema 56
ester 56
Philip 56
Momente 56
Hawaii 56
Media 56
wil@@ 56
speziellen 56
Shanghai 56
zentrum 56
Prov@@ 56
48 56
veränder@@ 56
N 56
Ag@@ 56
'60 56
Grippe 56
Wolfram 56
'90 56
pa 56
iniziai 56
spiaggia 56
responsabili 56
capisce 56
farli 56
concetti 56
creativo 56
esclu@@ 56
speriamo 56
beni 56
risol@@ 56
iniziale 56
competizione 56
cominciai 56
cola 56
genza 56
bagno 56
mucchio 56
orecchie 56
invecchiamento 56
vivente 56
imento 56
basi 56
itato 56
combin@@ 56
Qualche 56
muri 56
teatro 56
possiate 56
cono 56
riuscivo 56
articoli 56
offre 56
legger@@ 56
roccia 56
proviamo 56
provando 56
dava 56
nozione 56
sentivo 56
dicevo 56
istante 56
ottima 56
costantemente 56
corsi 56
atici 56
portò 56
assomiglia 56
orribile 56
tradizione 56
entemente 56
clinica 56
sofferenza 56
suona 56
gall@@ 56
partita 56
croce 56
camera 56
pinguini 56
zweimal 55
hinzu 55
Kapital 55
sat@@ 55
Hü@@ 55
geln 55
alternative 55
spa@@ 55
Chancen 55
One 55
ativ 55
Auto@@ 55
viel@@ 55
dahinter 55
asen 55
Zell@@ 55
kommen@@ 55
woh@@ 55
Bett 55
Ker@@ 55
Bio@@ 55
enthält 55
Rock@@ 55
momentan 55
meiste 55
Problems 55
sicher@@ 55
t-@@ 55
nebenbei 55
ehren 55
änder 55
lebe 55
nde 55
nungen 55
voran@@ 55
irgendeine 55
fantastisch 55
ug@@ 55
menschlicher 55
Lager 55
Garten 55
Nelson 55
Literatur 55
vorher@@ 55
lichste 55
Anti@@ 55
Bibliothek 55
qui@@ 55
Internet@@ 55
lehren 55
schließt 55
Gleiche 55
trans@@ 55
bre@@ 55
alisierung 55
Dafür 55
well 55
Leben@@ 55
seitdem 55
SS 55
ort 55
pin@@ 55
Nacht@@ 55
Quellen 55
Wes@@ 55
ht 55
Ziele 55
Schutz 55
han 55
tem 55
Fran@@ 55
Tal@@ 55
wa@@ 55
Wagen 55
Brad 55
ograf@@ 55
zü@@ 55
industri@@ 55
esc@@ 55
Mark 55
hotel 55
Cam@@ 55
mani@@ 55
odo 55
bac@@ 55
Natasha 55
sec@@ 55
marchio 55
aggiung@@ 55
mostri 55
inquinamento 55
caus@@ 55
speso 55
passano 55
contadini 55
atico 55
inclu@@ 55
disastro 55
investimento 55
proposta 55
Pens@@ 55
uccidere 55
finora 55
deriva 55
itudine 55
giornalista 55
rivel@@ 55
dovevamo 55
dovevano 55
prendi 55
esto 55
discorsi 55
guardi 55
seguendo 55
libera 55
esplosione 55
poesia 55
ferro 55
occhiali 55
naso 55
telescopio 55
visit@@ 55
guardar@@ 55
profonde 55
protezione 55
conos@@ 55
utto 55
belli 55
credete 55
bianca 55
animazione 55
Roll@@ 54
Fol@@ 54
98 54
Bri@@ 54
Cl@@ 54
wirft 54
junger 54
Inspiration 54
tausenden 54
rote 54
Diagramm 54
War 54
Jeff 54
private 54
keit 54
Star@@ 54
Dach 54
grossen 54
äuß@@ 54
ym@@ 54
besessen 54
eser@@ 54
hinzufügen 54
sist@@ 54
Fast 54
wir@@ 54
Atlanta 54
Lern@@ 54
fühl@@ 54
Glas 54
pft 54
decken 54
Mandela 54
Schwer@@ 54
zelle 54
Ruf 54
interessanten 54
erhöhen 54
Koll@@ 54
Y 54
een 54
König 54
dischen 54
extra 54
sig@@ 54
og 54
Grafik 54
Instrumente 54
kat@@ 54
Schatten 54
Süden 54
Tests 54
sü@@ 54
genügend 54
Gegenwart 54
ya 54
Bor@@ 54
ogra@@ 54
bag@@ 54
mini@@ 54
fi 54
derzeit 54
Ä@@ 54
Ja@@ 54
Din@@ 54
porte 54
Leider 54
Billionen 54
72 54
masse 54
modi@@ 54
rosa 54
astr@@ 54
Canada 54
retro 54
Eravamo 54
parlarne 54
lontani 54
pubblici 54
performance 54
benzina 54
venuta 54
internazionali 54
Germania 54
educ@@ 54
condizion@@ 54
Quest' 54
estinzione 54
imparando 54
biodiversità 54
tranne 54
alizzati 54
dedicato 54
ognuna 54
atelo 54
telecamera 54
evoluti 54
virtuale 54
parli 54
regioni 54
calcio 54
proteine 54
balena 54
asci@@ 54
prat@@ 54
torniamo 54
funghi 54
sott@@ 54
ispirato 54
famosa 54
trem@@ 54
copi@@ 54
irà 54
salvato 54
letteratura 54
viso 54
schiavitù 54
fü@@ 53
vermeiden 53
auer 53
Sobald 53
Durch@@ 53
Gebiete 53
systeme 53
offenen 53
legale 53
Finanz@@ 53
liefern 53
chtung 53
bricht 53
eng 53
Neues 53
blaue 53
feststellen 53
A-@@ 53
Erfinder 53
gemeinsame 53
tionen 53
vieles 53
II 53
Entdeckungen 53
influenz@@ 53
basi@@ 53
Darstellung 53
Waffen 53
aufnehmen 53
planen 53
technischen 53
cent@@ 53
Sport@@ 53
schwarzen 53
gefahren 53
chter 53
beenden 53
weiße 53
egen@@ 53
organisiert 53
tic@@ 53
Preise 53
He@@ 53
überwinden 53
"@@ 53
geri@@ 53
Prä@@ 53
dank 53
stehe 53
für@@ 53
grünen 53
Gegenden 53
Jane 53
Häuser 53
wunderbaren 53
erforscht 53
Berg@@ 53
versorgen 53
ergibt 53
zentr@@ 53
Faktor 53
dargestellt 53
ture 53
voneinander 53
Räume 53
Strand 53
ungssystem 53
verfolgt 53
Psych@@ 53
rischen 53
bro@@ 53
solange 53
Berge 53
hörten 53
Computern 53
material 53
San@@ 53
Roh@@ 53
tiefer 53
lungen 53
Kern 53
iker 53
Autor 53
firma 53
meinte 53
übernehmen 53
erer 53
groß@@ 53
Gesichter 53
wäl@@ 53
Jones 53
manchen 53
Richtungen 53
Organ@@ 53
hinauf 53
starben 53
Keith 53
abgel@@ 53
Serie 53
Schließlich 53
Eigen@@ 53
peri@@ 53
Te@@ 53
kostenlos 53
fuer 53
energie 53
Vietnam 53
präsentiert 53
Hunger 53
Sem@@ 53
Sin@@ 53
Bein 53
atik 53
Hunde 53
Lee 53
singen 53
Führungs@@ 53
colleg@@ 53
svol@@ 53
illumin@@ 53
scritta 53
record 53
evidente 53
attivi 53
scambi@@ 53
attualmente 53
ambientale 53
villaggi 53
porterà 53
mondi 53
alternativa 53
ersi 53
veloci 53
moderno 53
scultura 53
festa 53
punta 53
indipendente 53
stadio 53
essenziale 53
attesa 53
voci 53
darò 53
sensi 53
tirare 53
confronti 53
desideri 53
bianchi 53
aiutarci 53
Potrei 53
efficienti 53
chimici 53
stretto 53
L’ 53
andolo 53
matrimonio 53
ogli@@ 53
studiando 53
govern@@ 53
spazzatura 53
caduta 53
incidente 53
tragedia 53
chiare 53
sentiamo 53
veder@@ 53
relativamente 53
chiesi 53
vedremo 53
razza 53
illusione 53
consideriamo 53
impieg@@ 53
grasso 53
amoci 53
carico 53
africano 53
salt@@ 53
citta 53
Hin@@ 52
stigen 52
fällen 52
api@@ 52
Institut 52
Fortschritte 52
inf@@ 52
gebiet 52
dringen 52
Jahrzehnt 52
interessanter 52
schönes 52
seln 52
Tech@@ 52
akzeptieren 52
gegen@@ 52
bildet 52
Canyon 52
Ment@@ 52
kar@@ 52
Schritte 52
ville 52
ates 52
reich@@ 52
Schu@@ 52
ktionen 52
KA 52
Viertel 52
irgendjemand 52
unde 52
Sco@@ 52
satz@@ 52
Yorker 52
Element 52
--- 52
Res@@ 52
Je 52
Bro@@ 52
Kommen 52
blicken 52
over 52
vest@@ 52
drückt 52
treibt 52
Student 52
selbe 52
Ameise 52
etz@@ 52
36 52
vorbereitet 52
deiner 52
atur 52
stand@@ 52
richten 52
stück 52
Mexiko 52
lasse 52
Korallen 52
samkeit 52
alo 52
Konflikt 52
Ohren 52
gebrochen 52
Geographic 52
Physiker 52
Rechen@@ 52
wand 52
Stein 52
inge 52
hervor 52
Weisheit 52
same 52
perc@@ 52
Erinnerung 52
eingeladen 52
leu@@ 52
Wissenschaftlern 52
lineare 52
Oel 52
opp@@ 52
Ra@@ 52
Vergnügen 52
Signal 52
Gesundheitswesen 52
Ric@@ 52
tierte 52
Geschäfte 52
Füße 52
Carolina 52
2,@@ 52
afrikanische 52
sub 52
Teszler 52
Joshua 52
status 52
imper@@ 52
Aimee 52
universale 52
osso 52
Tre 52
cerà 52
preferiti 52
straordinarie 52
facciano 52
rifl@@ 52
privato 52
prendersi 52
Russia 52
Ehi 52
infantile 52
scompar@@ 52
risoluzione 52
contare 52
palazzo 52
stima 52
minimo 52
religioni 52
adoro 52
colpa 52
ione 52
pagato 52
chiesa 52
rò 52
spostare 52
capiamo 52
cron@@ 52
francese 52
habitat 52
icano 52
corr@@ 52
accadere 52
distrug@@ 52
giamo 52
diffondere 52
Cambi@@ 52
biblioteca 52
improvvis@@ 52
affi@@ 52
esegu@@ 52
produttori 52
alzare 52
permetter@@ 52
vaccino 52
render@@ 52
osservate 52
diffusione 52
Francia 52
difesa 52
priorità 52
inverno 52
annun@@ 52
balene 52
climatici 52
serra 52
piú 52
aufgeregt 51
Bevor 51
Brief 51
aktuelle 51
trag 51
kün@@ 51
drin@@ 51
Level 51
chts 51
schluss 51
nutz@@ 51
regel@@ 51
brut@@ 51
National@@ 51
Ohne 51
Handys 51
hey 51
machst 51
Russland 51
eb 51
iges 51
soll@@ 51
mittlerweile 51
oten 51
Zeitalter 51
Gespräch 51
Geheimnis 51
Beh@@ 51
wenigstens 51
34 51
Opfer 51
beweg@@ 51
Hat 51
bezeichnen 51
Motor 51
Gehen 51
Elektro@@ 51
ernähren 51
linie 51
schießen 51
Verlust 51
entfernen 51
termin@@ 51
bemerkte 51
sorge 51
manc@@ 51
onica 51
krei@@ 51
entstand 51
schwer@@ 51
aw@@ 51
westlichen 51
37 51
See 51
enthalten 51
ppi@@ 51
krit@@ 51
.org 51
wur@@ 51
tiven 51
mischen 51
Kindes 51
Ka@@ 51
Haare 51
spirit@@ 51
Hol@@ 51
Nu@@ 51
beispielsweise 51
klar@@ 51
win@@ 51
auton@@ 51
diges 51
Tradition 51
eingeführt 51
Pot@@ 51
biot@@ 51
lten 51
uni 51
Damen 51
Experten 51
ache 51
Lass 51
langsamer 51
Herren 51
Metern 51
verstand 51
Julia 51
open 51
Alexander 51
Märkte 51
moralischen 51
Sahara 51
Evan 51
mem@@ 51
ziale 51
Namibia 51
Dic@@ 51
fo@@ 51
Gran@@ 51
Cur@@ 51
fum@@ 51
ry 51
inci@@ 51
Rover 51
Alpha 51
And@@ 51
anca 51
orient@@ 51
vide 51
E’ 51
uscita 51
volontari 51
continuato 51
sfruttare 51
derlo 51
izzare 51
filosofia 51
glio 51
torna 51
principalmente 51
estremità 51
raccolta 51
automaticamente 51
potessi 51
piamo 51
portate 51
preciso 51
osservazione 51
icate 51
conferenze 51
Dovremmo 51
ettore 51
eggiare 51
utilizzo 51
tengono 51
personalità 51
rifiuti 51
professore 51
muscolo 51
picco 51
alizzazione 51
giapponese 51
ritorn@@ 51
sbagli@@ 51
'80 51
significativo 51
gusto 51
blocco 51
ruota 51
vinc@@ 51
stici 51
ucciso 51
fotografo 51
scattata 51
gamba 51
vivi 51
tali 51
segue 51
giallo 51
tivi 51
racconto 51
uccello 51
mangiano 51
flog 50
4,@@ 50
Ganzen 50
besseres 50
leichter 50
eres 50
verbr@@ 50
bemerkenswert 50
Situationen 50
irgend@@ 50
Funktionen 50
insbesondere 50
befassen 50
verdi@@ 50
dliche 50
funktionierte 50
Anführer 50
Fli@@ 50
ets 50
Band 50
Schnee 50
Grand 50
Dame 50
wagen 50
inner@@ 50
it 50
beschrieben 50
Inseln 50
oberen 50
Herstellung 50
Mel@@ 50
Schuld 50
Design-@@ 50
Lieb@@ 50
Wein 50
Netz@@ 50
chteten 50
veränderte 50
Abschluss 50
Em@@ 50
Erwachsenen 50
zeigten 50
Asien 50
weshalb 50
Laptops 50
Blätter 50
fasziniert 50
schlägt 50
grüne 50
bezeichnet 50
Brasilien 50
Geräusch 50
beschloss 50
starken 50
chts@@ 50
folgendes 50
Kri@@ 50
tauchen 50
üm@@ 50
Medium 50
tim@@ 50
Kurve 50
geschlagen 50
Kaffe@@ 50
Blogs 50
zurückgehen 50
digung 50
omi@@ 50
Musiker 50
ck@@ 50
zukommen 50
bus 50
Standard@@ 50
Medien@@ 50
chti@@ 50
cel@@ 50
Zufall 50
Klima 50
Schlag@@ 50
compl@@ 50
Frankreich 50
berei@@ 50
bauten 50
fotografiert 50
servi@@ 50
Willen 50
2002 50
Winter 50
visuelle 50
ble 50
Golf@@ 50
bell@@ 50
Epi@@ 50
Whit@@ 50
formi@@ 50
repräsentiert 50
gon@@ 50
Bienen 50
Pinguine 50
Sylvia 50
attivo 50
aggiorn@@ 50
contribu@@ 50
estrarre 50
metterlo 50
terrorismo 50
Bretagna 50
Prendiamo 50
averlo 50
occupa 50
stazione 50
biglietto 50
scol@@ 50
intellettuale 50
potranno 50
piacevole 50
chiamava 50
abbandon@@ 50
ritorno 50
motivazione 50
scenario 50
accadde 50
Semplicemente 50
secoli 50
attraversare 50
grandezza 50
lancio 50
dimostrato 50
vicina 50
erba 50
fantastiche 50
tornando 50
connesso 50
assoluto 50
trovi 50
capi 50
cinema 50
concentrazione 50
potresti 50
Saturno 50
Fino 50
ciate 50
nascosto 50
ragazzini 50
brevemente 50
vada 50
velo 50
farmaco 50
aiutano 50
interni 50
cinesi 50
tipico 50
Prendete 50
ombra 50
stagione 50
fusione 50
gatto 50
chia 50
riserve 50
sinistro 50
Ehre 49
fuhren 49
Restaurant 49
appen 49
Jay 49
kür@@ 49
Wohlstand 49
Presse 49
verglichen 49
Debatte 49
Mehrheit 49
verursachen 49
struktur 49
alist@@ 49
Flugzeuge 49
elli@@ 49
Rel@@ 49
trafen 49
hil@@ 49
Insekten 49
Neben@@ 49
kalt 49
billig 49
1999 49
Religionen 49
fordert 49
stig@@ 49
Stimmen 49
Müll 49
eleg@@ 49
Architekt 49
DR 49
gän@@ 49
entiert 49
Fläche 49
vorbei@@ 49
drehte 49
ador@@ 49
körper@@ 49
scha@@ 49
Chemikalien 49
High 49
möglichkeiten 49
dieren 49
frem@@ 49
Disney 49
Charlie 49
Immer 49
Rom@@ 49
Spektrum 49
anzusehen 49
Gehirne 49
inspiri@@ 49
Dom@@ 49
größ@@ 49
nachzu@@ 49
worum 49
Pun@@ 49
Ursprung 49
Lektion 49
CA@@ 49
zin@@ 49
Saturn 49
lokalen 49
Schwanz 49
sum@@ 49
Detail 49
McDonald 49
drücke 49
jün@@ 49
angenommen 49
bewirken 49
erwähnen 49
kulturelle 49
maß@@ 49
Lam@@ 49
Aff@@ 49
ammi@@ 49
50@@ 49
lebendig 49
sky 49
Bangladesh 49
sä@@ 49
Saal 49
determin@@ 49
simul@@ 49
tit@@ 49
alc@@ 49
talk 49
Glamour 49
fui 49
'' 49
chiedono 49
trasporto 49
bruci@@ 49
irlo 49
considerato 49
chiara 49
esercizio 49
urbano 49
rossa 49
organizzare 49
dipen@@ 49
Significa 49
iniziamo 49
cliente 49
Dissi 49
comunic@@ 49
mammiferi 49
terrestre 49
accur@@ 49
classi@@ 49
pavimento 49
prestito 49
ovest 49
trasformato 49
antica 49
territorio 49
dizionario 49
solari 49
metallo 49
iniamo 49
muscoli 49
vamente 49
attacc@@ 49
piac@@ 49
acciaio 49
cambiano 49
grossi 49
lunghe 49
slide 49
eroe 49
richiesta 49
economisti 49
paragon@@ 49
raccontato 49
Medio 49
pochino 49
barriera 49
saremmo 49
escono 49
giuste 49
abitu@@ 49
paga 49
perdono 49
Parliamo 49
itaria 49
tribù 49
matematico 49
canali 49
speriment@@ 49
Sudafrica 49
scende 49
Allo 49
mito 49
attacchi 49
Cominci@@ 49
incentivi 49
coralli 49
schöner 48
packen 48
Technolog@@ 48
ausmachen 48
schauten 48
on-@@ 48
Aspekte 48
Ereignisse 48
43 48
Studi@@ 48
Volk 48
bem@@ 48
inspirieren 48
Militär@@ 48
pfe 48
3000 48
sinn 48
annte 48
Mei@@ 48
darunter 48
bür@@ 48
entale 48
Post@@ 48
Treffen 48
Analyse 48
sogenannten 48
künstliche 48
Vis@@ 48
eien 48
Hil@@ 48
Gibt 48
spl@@ 48
unteren 48
lagen 48
doppelt 48
geholfen 48
weltweiten 48
ographie 48
Biologen 48
DNA-@@ 48
Gebieten 48
Entwicklungsländer 48
mitnehmen 48
differenzi@@ 48
Chem@@ 48
besucht 48
Stand@@ 48
Trends 48
Shakespeare 48
vel@@ 48
Magie 48
erenden 48
Sil@@ 48
stirbt 48
wundervolle 48
Süß@@ 48
ergeben 48
stre@@ 48
punkte 48
Sau@@ 48
gründete 48
stan@@ 48
Toten 48
Ins@@ 48
Elektr@@ 48
Erste 48
kungen 48
grund@@ 48
fliegt 48
natur@@ 48
blauen 48
trat 48
tliche 48
eindeutig 48
niemanden 48
Einstellung 48
hof 48
mächtig 48
geteilt 48
stam@@ 48
ance 48
Tages@@ 48
Eric 48
Rob 48
Pos@@ 48
Weltraum 48
Zer@@ 48
Interaktion 48
diert 48
analog@@ 48
Kosovo 48
elektrische 48
Tasche 48
Finger@@ 48
Hir@@ 48
gei@@ 48
interess@@ 48
Hong 48
Kin@@ 48
tol@@ 48
oria 48
umi@@ 48
anto 48
gio@@ 48
TEDx@@ 48
camion 48
scopr@@ 48
bilmente 48
implicazioni 48
rifer@@ 48
esplo@@ 48
fortunati 48
recenti 48
accad@@ 48
potrete 48
avreste 48
legame 48
arrivate 48
sè 48
avanz@@ 48
acceler@@ 48
mettete 48
abbrac@@ 48
erete 48
cavo 48
cominciando 48
costruita 48
architett@@ 48
itto 48
costoso 48
signora 48
assor@@ 48
telefoni 48
altrove 48
a-- 48
individuare 48
aumenta 48
lizz@@ 48
produttività 48
acido 48
economiche 48
gamma 48
analizzare 48
entrato 48
digitali 48
genti 48
innovazioni 48
bravo 48
incidenti 48
applicazione 48
lunghezza 48
Guerra 48
confine 48
replic@@ 48
laser 48
itamente 48
ambientali 48
comando 48
pensione 48
obblig@@ 48
unbe@@ 47
gerufen 47
Gemeinden 47
Atem@@ 47
Verwendung 47
begrenzt 47
Vorteile 47
betreiben 47
diam@@ 47
technische 47
Folgen 47
Rechts@@ 47
schläge 47
Respekt 47
struktur@@ 47
produktion 47
ursprünglich 47
sprech@@ 47
fantastische 47
eger 47
Privat@@ 47
Alan 47
betrieben 47
Absicht 47
egende 47
mach 47
infiziert 47
Danach 47
faszinierend 47
eigentliche 47
heb@@ 47
anhand 47
erende 47
Zeitraum 47
parti@@ 47
Kohlenstoff 47
Untersuchung 47
Machen 47
umgeben 47
füllen 47
kreiert 47
tern@@ 47
schlug 47
vielmehr 47
tiere 47
miss@@ 47
Kreb@@ 47
versorgung 47
diger 47
Gebäuden 47
visu@@ 47
mehr@@ 47
Stämme 47
Solar@@ 47
sern 47
ki@@ 47
-H@@ 47
Darum 47
teste 47
ester@@ 47
Müll@@ 47
Virginia 47
womit 47
Ausrüstung 47
aufnahme 47
Zuhause 47
geschlossen 47
geomet@@ 47
Stim@@ 47
Time 47
heran@@ 47
ts@@ 47
D-@@ 47
Gold 47
grundlegenden 47
Kraft@@ 47
Tanz@@ 47
stän@@ 47
pieg@@ 47
Radio 47
kontrolliert 47
öl@@ 47
ond@@ 47
Schutz@@ 47
Konsequenzen 47
Sternen 47
Rus@@ 47
schicht 47
rational 47
hör@@ 47
suche 47
forder@@ 47
letz@@ 47
auseinander 47
iste 47
folgenden 47
sin 47
Mur@@ 47
qual@@ 47
enne 47
ambi@@ 47
Vogel 47
& 47
brutto 47
Sap@@ 47
rea 47
sfi@@ 47
sport 47
simo 47
tent@@ 47
ordin@@ 47
ili 47
vermi 47
segno 47
negativo 47
tecnologica 47
convin@@ 47
amministrazione 47
combustibile 47
resta 47
renderlo 47
passando 47
necessarie 47
apertura 47
resistenza 47
Italia 47
militare 47
muore 47
volere 47
esprimere 47
genetico 47
avvi@@ 47
preg@@ 47
pensarci 47
signori 47
aggiunto 47
erlo 47
disegnato 47
davano 47
Altri 47
utilizzando 47
complicata 47
diabete 47
scimmia 47
ascoltato 47
regno 47
pensavano 47
anziani 47
Guarda 47
fegato 47
apprezz@@ 47
genera 47
interagire 47
resti 47
nascon@@ 47
avviso 47
maschi 47
sott' 47
sapevano 47
metodi 47
descritto 47
assunto 47
Regno 47
terò 47
butt@@ 47
birra 47
eccezionale 47
argomenti 47
stamp@@ 47
soldato 47
Oriente 47
sperimentare 47
curiosità 47
dinamiche 47
membro 47
gre@@ 47
consist@@ 47
vendo 47
manca 47
desse 47
banda 47
topo 47
aspettativa 47
rocce 47
dipendenti 47
minacci@@ 47
povere 47
ospedali 47
batteria 47
tubo 47
classica 47
sonno 47
spazz@@ 47
compreso 47
squali 47
antichi 47
trieb 46
Schuhe 46
aktu@@ 46
Durchschnitt 46
lenken 46
beteiligt 46
CO2-@@ 46
wesen 46
angel@@ 46
probleme 46
überraschend 46
ahnen 46
Pe@@ 46
source 46
Sauerstoff@@ 46
Konsumenten 46
Wirtschaft@@ 46
Staats@@ 46
Kap@@ 46
US 46
höchste 46
altung 46
gebildet 46
ausgeben 46
Straßen@@ 46
anstelle 46
0 46
wär@@ 46
Fokus 46
zulassen 46
vertrauen 46
é@@ 46
Gordon 46
Buchstaben 46
rot 46
basierend 46
minim@@ 46
chemische 46
♪ 46
Text@@ 46
schwarz 46
ump@@ 46
schle@@ 46
Strom@@ 46
glichen 46
Uns 46
Wohn@@ 46
Hum@@ 46
1998 46
werte 46
ow@@ 46
hier@@ 46
97 46
file 46
gemein@@ 46
glaubten 46
ing-@@ 46
kaufte 46
bol@@ 46
Mul@@ 46
Ol@@ 46
versteckt 46
Wür@@ 46
sex@@ 46
schaft@@ 46
haltung 46
Arme 46
ktion@@ 46
Farb@@ 46
Chemie 46
Große 46
worauf 46
mittel@@ 46
zurückkehren 46
Stil 46
Theorien 46
Bäumen 46
trug 46
fung 46
ada@@ 46
langweilig 46
Wohlbefinden 46
situ@@ 46
schen@@ 46
00@@ 46
Sichtweise 46
Jon@@ 46
rö@@ 46
Joe 46
Is@@ 46
dische 46
erter 46
abi@@ 46
Außer@@ 46
Wieder 46
antrop@@ 46
isation 46
verschieden 46
Texas 46
Kampagne 46
Bronx 46
Nachhaltigkeit 46
60.000 46
küh@@ 46
Han@@ 46
Ed@@ 46
ce@@ 46
Gipfel 46
bekann@@ 46
Moral 46
lerin 46
eitet 46
arch@@ 46
abe 46
Jefferson 46
gebiete 46
indischen 46
indu@@ 46
Et@@ 46
ped@@ 46
Eier 46
gn@@ 46
cir@@ 46
eti@@ 46
codi@@ 46
Wild@@ 46
Oper@@ 46
sic@@ 46
tip@@ 46
Comics 46
ume 46
cul@@ 46
trover@@ 46
ghi@@ 46
contributo 46
nell’ 46
automobili 46
calcolare 46
ragion@@ 46
respirare 46
serviva 46
matematici 46
infrastruttura 46
arrivi 46
divertimento 46
militari 46
compi@@ 46
pioggia 46
creativi 46
sov@@ 46
lunghi 46
chimico 46
silenzio 46
verticale 46
folla 46
infil@@ 46
organizzato 46
fondazione 46
frattempo 46
foglie 46
copertina 46
staminali 46
dovremo 46
dersi 46
coinvolgere 46
perde 46
canzoni 46
dipendenza 46
antico 46
sentimenti 46
Cinque 46
intro@@ 46
emi 46
vaccini 46
Qualcosa 46
veicoli 46
usarlo 46
Deve 46
medica 46
interventi 46
buchi 46
schifo 46
ologo 46
sollev@@ 46
superfici 46
prototipo 46
passiamo 46
soggetti 46
spavent@@ 46
lati 46
vicenda 46
tenda 46
provoc@@ 46
visti 46
simulazione 46
rallentare 46
maiale 46
guard@@ 46
paradiso 46
pall@@ 46
we@@ 45
End@@ 45
Investitionen 45
stig 45
top@@ 45
fälle 45
zehn@@ 45
verdient 45
Voll@@ 45
Ausnahme 45
führ@@ 45
ektor 45
Eigenschaft 45
fürs 45
plan 45
fünf@@ 45
Philosophie 45
aust@@ 45
Zahn@@ 45
kreativen 45
häu@@ 45
Vorschlag 45
130 45
Ökosystem 45
toren 45
fasst 45
definiert 45
Eb@@ 45
Anstatt 45
zieh@@ 45
Links 45
pert@@ 45
herunter 45
ungs-@@ 45
Zerstörung 45
begreifen 45
mensch@@ 45
Zur 45
Fort@@ 45
3,@@ 45
dri@@ 45
mod@@ 45
pfl@@ 45
beigebracht 45
Blumen 45
lokale 45
kennen@@ 45
speziell 45
Gewebe 45
beri@@ 45
Kos@@ 45
Sek@@ 45
stoßen 45
liebte 45
Sex@@ 45
einst 45
Schei@@ 45
illu@@ 45
UN@@ 45
spiel@@ 45
tau@@ 45
merken 45
istische 45
fisch 45
berühren 45
ologische 45
Blog@@ 45
schrieben 45
reduziert 45
begegnen 45
Open 45
Inhalte 45
lehr@@ 45
forn@@ 45
ül@@ 45
Wohl@@ 45
öh@@ 45
Schweden 45
drit@@ 45
zah@@ 45
Erwachsene 45
geniale 45
fra@@ 45
wirklichen 45
Gemeinschaften 45
gste 45
woran 45
Blickwinkel 45
Top@@ 45
kende 45
verab@@ 45
40.000 45
jung 45
Buddha 45
getreten 45
Male 45
Änderungen 45
:"@@ 45
tig@@ 45
Schä@@ 45
Ü@@ 45
Atem 45
neten 45
Sonnensystem 45
sende 45
Albert 45
geni@@ 45
bedeutete 45
wissenschaften 45
züge 45
nüt@@ 45
Führer 45
produk@@ 45
Rosling 45
chirurg@@ 45
omo 45
verliert 45
Fa 45
eto 45
Verbrechen 45
selbstverständlich 45
Stärke 45
mata 45
Quadrat 45
mais 45
Kong 45
oss 45
sf@@ 45
üsse 45
uri 45
SJ 45
basa 45
disp@@ 45
edi 45
Quasi 45
alli 45
estr@@ 45
togli@@ 45
sfortunatamente 45
riso 45
riscal@@ 45
operazione 45
ezione 45
inati 45
gestione 45
zionali 45
copr@@ 45
arco 45
fondato 45
decoll@@ 45
vennero 45
amare 45
circostanze 45
canale 45
energetica 45
biologica 45
peggiori 45
apre 45
fallito 45
stra 45
ricostruire 45
andavano 45
stupefacente 45
aglio 45
convinto 45
rispett@@ 45
fossimo 45
positivi 45
icati 45
meccanica 45
creati 45
densità 45
obesità 45
sanitaria 45
partenza 45
spinta 45
ridere 45
Viene 45
cerebrali 45
magico 45
miamo 45
complesse 45
ritornare 45
'70 45
alizzata 45
rossi 45
itivi 45
anta 45
accen@@ 45
condotto 45
diretto 45
contemporaneamente 45
pomeriggio 45
funzionamento 45
riduzione 45
congel@@ 45
tutt' 45
diagnosi 45
corrisponde 45
assegn@@ 45
empatia 45
brano 45
Sfortunatamente 45
atorio 45
PIL 45
bici 45
cattur@@ 45
simbolo 45
visibile 45
Presidente 45
destino 45
memi 45
cricket 45
derselben 44
suchten 44
Paar 44
antwortete 44
eröffnet 44
freund@@ 44
mieren 44
Wur@@ 44
Berkeley 44
ausgegeben 44
Projekten 44
ener 44
Systemen 44
drück@@ 44
univers@@ 44
weite 44
ego@@ 44
itäts@@ 44
einig@@ 44
pfer@@ 44
Drogen 44
Wert@@ 44
ruft 44
Risiken 44
196@@ 44
1,5 44
voraus 44
Bericht 44
sexy 44
greift 44
intensi@@ 44
Wahrscheinlich 44
genetischen 44
schwere 44
ordnung 44
gesammelt 44
meist 44
gruppen 44
for 44
Pocken 44
Schlüssel@@ 44
Frag@@ 44
bücher 44
liefert 44
pt 44
Anruf 44
packt 44
flüs@@ 44
Eing@@ 44
stücke 44
kauft 44
lä@@ 44
ter-@@ 44
mil@@ 44
ahl 44
hassen 44
schwieriger 44
Wegen 44
elektrischen 44
bus@@ 44
Bus 44
heilen 44
96 44
komplexen 44
läu@@ 44
scheinbar 44
bekämpfen 44
Status 44
Chaos 44
Normalerweise 44
Entstehung 44
Schwar@@ 44
Wein@@ 44
romant@@ 44
heiraten 44
toc@@ 44
Einheit 44
nachts 44
Hitze 44
Wunder@@ 44
zugeben 44
genetische 44
Jamie 44
lebende 44
weiten 44
Vit@@ 44
ez 44
woher 44
South 44
Fot@@ 44
Teleskop 44
ook 44
getrieben 44
human@@ 44
integr@@ 44
Interface 44
Leonardo 44
yp@@ 44
ls 44
Löcher 44
atom@@ 44
Zuschauer 44
Kleidung 44
boom 44
Arbeiter 44
Haut@@ 44
Wahl@@ 44
IM@@ 44
erzeu@@ 44
tru@@ 44
bril@@ 44
Mau@@ 44
alber@@ 44
Lö@@ 44
Königin 44
Medikament 44
volles 44
zeichnete 44
anal@@ 44
Pil@@ 44
reste 44
Biosphäre 44
inzwischen 44
sätze 44
beru@@ 44
hinunter 44
poster 44
fache 44
Schicksal 44
unterwegs 44
show 44
Vagina 44
stellungen 44
ausgesetzt 44
Ball 44
ED 44
iz@@ 44
Mik@@ 44
Ach@@ 44
mos@@ 44
igi@@ 44
ham 44
mul@@ 44
mic@@ 44
Jonathan 44
Ori@@ 44
bat@@ 44
Dor@@ 44
Ul@@ 44
AIMS 44
lia 44
modell@@ 44
spe@@ 44
tasse 44
occ@@ 44
degra@@ 44
prev@@ 44
ader@@ 44
diavolo 44
efficaci 44
diventerà 44
pulita 44
fumo 44
preparato 44
prevenire 44
tagliare 44
tavola 44
critica 44
atemi 44
salto 44
conosc@@ 44
diede 44
credeva 44
Unione 44
viaggi 44
trascorso 44
mouse 44
sovra@@ 44
rompere 44
impiegati 44
odi 44
rifiut@@ 44
disegn@@ 44
coinvolto 44
cavi 44
miglioramento 44
bassi 44
popolazioni 44
dov' 44
Lavor@@ 44
farmi 44
farle 44
partendo 44
prevedere 44
caos 44
professionisti 44
saltare 44
risparmi@@ 44
connessi 44
glie 44
Guardiamo 44
merito 44
Unito 44
morta 44
dichiar@@ 44
ciascuna 44
colpito 44
distanze 44
picchi@@ 44
inate 44
leadership 44
estremo 44
Costru@@ 44
mettersi 44
cancell@@ 44
Corea 44
fici 44
avvic@@ 44
voto 44
energetico 44
azion@@ 44
icare 44
dispositivi 44
signor 44
sensori 44
istituzione 44
selv@@ 44
nuotare 44
scattato 44
regina 44
saßen 43
Leb@@ 43
tag 43
rennen 43
Werden 43
eingesch@@ 43
fern@@ 43
Holz 43
zuzu@@ 43
liger 43
Niveau 43
Nick 43
uss@@ 43
fia 43
system@@ 43
wohl@@ 43
Globalisierung 43
atives 43
weis@@ 43
Dienst 43
Nutzung 43
Flü@@ 43
200.000 43
dienen 43
Marketing 43
zusammenarbeiten 43
Bru@@ 43
Zeichnungen 43
Gebäudes 43
equ@@ 43
konstruieren 43
schafts@@ 43
fläche 43
CD 43
letztlich 43
ik 43
Off@@ 43
Sagen 43
ahl@@ 43
zeich@@ 43
ef 43
reiche 43
int 43
Standpunkt 43
Dinger 43
Bevölkerungs@@ 43
Pepsi 43
gesunden 43
dende 43
gewöhnt 43
Umfeld 43
Kanada 43
erhielt 43
bruch 43
fach 43
Denkweise 43
exakt 43
kri@@ 43
-P@@ 43
Blatt 43
Danny 43
ition 43
Sozi@@ 43
Gru@@ 43
heiß 43
liest 43
jenen 43
stisch 43
zentrale 43
prü@@ 43
eBay 43
ücken 43
Bang 43
rechnen 43
zusetzen 43
agt 43
Erinnern 43
Interessen 43
istischen 43
Ob@@ 43
erhöht 43
Hill 43
1990 43
schutz@@ 43
Sei@@ 43
kins 43
Mathematiker 43
pli@@ 43
stische 43
urban@@ 43
etische 43
ritten 43
tro 43
Lebenserwartung 43
Mes@@ 43
verteilen 43
stoppen 43
jenseits 43
schau@@ 43
Welle 43
Lab@@ 43
weist 43
Eff@@ 43
Schnitt 43
Ciao 43
lung@@ 43
Uni@@ 43
:@@ 43
S-@@ 43
anpassen 43
entgegen@@ 43
blin@@ 43
kran@@ 43
Neuigkeiten 43
Warren 43
absol@@ 43
wandern 43
vern@@ 43
elabor@@ 43
wunderschöne 43
Indiens 43
linke 43
Ei@@ 43
pass@@ 43
fische 43
schi 43
kil@@ 43
Pittsburgh 43
eni 43
sul@@ 43
influ@@ 43
gras 43
fattoria 43
nervoso 43
compar@@ 43
moltissimo 43
irla 43
insegna 43
sempli@@ 43
conven@@ 43
globalizzazione 43
fortunato 43
creativa 43
rabbia 43
misero 43
risolver@@ 43
mentali 43
interpretazione 43
portiamo 43
costruisce 43
agenti 43
cruciale 43
minaccia 43
sforzi 43
database 43
trasforma 43
niamo 43
vag@@ 43
Avevano 43
visitare 43
intitolato 43
vorremmo 43
eppure 43
controver@@ 43
pianificazione 43
emozion@@ 43
applicare 43
diminu@@ 43
biologi 43
accettare 43
brillanti 43
ecolog@@ 43
soddis@@ 43
scrivania 43
eseguire 43
chimiche 43
allev@@ 43
caratteristica 43
distr@@ 43
meccanismi 43
nascere 43
suici@@ 43
nuot@@ 43
rallent@@ 43
lenti 43
atrici 43
dipinto 43
chè 43
allucinazioni 43
informatica 43
emergere 43
hiamo 43
terà 43
beneficio 43
Infine 43
saputo 43
esponenziale 43
radicale 43
minore 43
legati 43
otteniamo 43
conflitti 43
pieni 43
cartello 43
talento 43
scale 43
mescol@@ 43
accadrà 43
proviene 43
Kli@@ 42
neh@@ 42
aktiven 42
Versuchen 42
mungen 42
Regen 42
Klein@@ 42
Gericht 42
Gh@@ 42
aten@@ 42
Handeln 42
vorwärts 42
Aufbau 42
kreativ 42
sfor@@ 42
genießen 42
orbit@@ 42
späten 42
investiert 42
neigen 42
Bild@@ 42
Wider@@ 42
handelte 42
Umständen 42
Übrigens 42
bedeutend 42
gan@@ 42
konzentr@@ 42
ze@@ 42
Tim@@ 42
etzt 42
vorsichtig 42
Intuition 42
schnelle 42
eli@@ 42
zustellen 42
Wörterbuch 42
drauf 42
Pandemie 42
höchsten 42
höheren 42
Fern@@ 42
Männchen 42
ausschließlich 42
herauszu@@ 42
arbeiter 42
zufrieden 42
enheit 42
gucken 42
kont@@ 42
arbeit@@ 42
könne 42
limit@@ 42
Geräusche 42
Depression 42
blei@@ 42
schten 42
Anstieg 42
RI@@ 42
e- 42
gelangt 42
Kelly 42
ular@@ 42
Den@@ 42
Angebot 42
imi 42
schm@@ 42
ott 42
Such@@ 42
Geburtstag 42
Woh@@ 42
Ke@@ 42
glückliche 42
audi@@ 42
zige 42
Innerhalb 42
eur@@ 42
bekannte 42
Tief@@ 42
werk@@ 42
day 42
Ram@@ 42
ap 42
verlangen 42
Katastrophe 42
Gleichgewicht 42
Aussage 42
kin@@ 42
runter@@ 42
Fo@@ 42
altes 42
sichtbar 42
46 42
gestartet 42
Daniel 42
Sport 42
2050 42
Rechte 42
Felsen 42
Inst@@ 42
eht 42
äs@@ 42
sigen 42
Zeitungen 42
gemessen 42
erfassen 42
Meere 42
Präsidenten 42
ausger@@ 42
ves 42
wn 42
Kolonie 42
Tag@@ 42
sim@@ 42
2.@@ 42
unge@@ 42
Recht@@ 42
Training 42
zusätzlich 42
Tanzania 42
Barry 42
virale 42
vir@@ 42
Tö@@ 42
Beinen 42
Scott 42
nden 42
Spen@@ 42
Sweeney 42
Sam@@ 42
ehi 42
mail 42
Tan@@ 42
Kugel 42
North 42
itu@@ 42
Rin@@ 42
Animation 42
asp@@ 42
Rose 42
Kennedy 42
ape 42
oia 42
elev@@ 42
bio 42
acco@@ 42
oti 42
Facebook 42
oca 42
pesante 42
presentare 42
ingegnere 42
poterlo 42
tura 42
accessibile 42
smettere 42
moto 42
consigli 42
necessari 42
eredità 42
ministro 42
segreti 42
commerciali 42
utente 42
dovunque 42
inventore 42
giusti@@ 42
distin@@ 42
sedere 42
descrive 42
edizione 42
satellite 42
scientifici 42
quota 42
Nessuna 42
Nessun 42
chiar@@ 42
uffici 42
sarò 42
tecnologico 42
imparano 42
circonda 42
elettronica 42
origini 42
trice 42
andomi 42
cina 42
manipol@@ 42
batterio 42
fallimento 42
cade 42
globali 42
edono 42
istru@@ 42
diffon@@ 42
somigli@@ 42
benissimo 42
esistere 42
fond@@ 42
metterci 42
corallo 42
Svezia 42
apparire 42
collegati 42
sino 42
quadrati 42
pollo 42
attori 42
mossa 42
Nazionale 42
giocatore 42
culturali 42
riconoscimento 42
necessaria 42
vorrebbe 42
stabilire 42
cominciamo 42
affront@@ 42
chirurgo 42
terribili 42
boll@@ 42
chiu@@ 42
diffusa 42
selezion@@ 42
genocidio 42
rati 42
orecchio 42
romanzo 42
settori 42
geometria 42
declino 42
tribu 42
Kurz 41
mes 41
gut@@ 41
Lang@@ 41
Darüber 41
icken 41
stands@@ 41
Logik 41
T-@@ 41
ax@@ 41
Systems 41
Denk@@ 41
Statistik 41
Vol@@ 41
kümmert 41
hilfe 41
schaffte 41
käm@@ 41
Mond@@ 41
Entschuldigung 41
NA@@ 41
Budget 41
obi@@ 41
vieler 41
Skulptur 41
Oberflächen 41
Figur 41
verliebt 41
gewissermaßen 41
ieb@@ 41
Chef 41
rech@@ 41
still 41
draussen 41
atten 41
zell@@ 41
Überall 41
fir@@ 41
stec@@ 41
Motivation 41
q@@ 41
Rek@@ 41
Mitt@@ 41
Hal@@ 41
Überraschung 41
00.000 41
Szene 41
überlegen 41
glau@@ 41
Schiff 41
anscheinend 41
Square 41
ebenen 41
Diabetes 41
Vorträge 41
samen 41
sten@@ 41
dumm 41
vergi@@ 41
1991 41
reise 41
zusehen 41
bombar@@ 41
strom 41
festgestellt 41
deinem 41
Gewinn 41
zunehmend 41
vorgestellt 41
Vide@@ 41
ulation 41
Ö@@ 41
empfinden 41
umso 41
steh@@ 41
hinaus@@ 41
Flüssigkeit 41
ingt 41
ober@@ 41
menge 41
Fe@@ 41
Red@@ 41
gänge 41
reb@@ 41
Cola 41
Verlauf 41
dens 41
Italien 41
nervös 41
öffentlich 41
räum@@ 41
Weg@@ 41
real 41
ellen@@ 41
Bay 41
physische 41
hing@@ 41
lierte 41
Symbol 41
ligen 41
ehr 41
atori@@ 41
Milch 41
Unter 41
wissenschaftler 41
eingehen 41
isierte 41
1994 41
Aufnahmen 41
Arm@@ 41
dunkel 41
altet 41
Alaska 41
Gener@@ 41
falten 41
Mumbai 41
urbane 41
Armstrong 41
unt@@ 41
presse 41
MA 41
49 41
Hor@@ 41
Fettleibigkeit 41
eda 41
Weltkrieg 41
Population 41
Kapitel 41
Rit@@ 41
Stern 41
herein@@ 41
fang 41
dient 41
echtes 41
Katrina 41
Forsch@@ 41
DVD 41
weltweite 41
SMS 41
andel@@ 41
anzugehen 41
Winkel 41
Casa 41
SI 41
Fei@@ 41
feiern 41
wis@@ 41
Business 41
Eu@@ 41
austr@@ 41
dente 41
Sierra 41
Tony 41
Tour 41
Videospiele 41
stabile 41
Space 41
amp 41
ara 41
Murray 41
eter@@ 41
ki 41
esia 41
genio 41
astron@@ 41
disco 41
ega 41
coni@@ 41
Rac@@ 41
paradigma 41
itari 41
spiegato 41
Intendo 41
alisti 41
capitalismo 41
ampli@@ 41
pubbliche 41
civili 41
ariamente 41
riguardano 41
Poiché 41
gano 41
qual' 41
credito 41
raccolti 41
definito 41
Luna 41
vengano 41
pilota 41
'50 41
caro 41
sostitu@@ 41
capirlo 41
immagino 41
dialogo 41
aspettando 41
entrate 41
piangere 41
spedizione 41
lettura 41
Esiste 41
tecnico 41
ascoltando 41
valut@@ 41
divent@@ 41
Trov@@ 41
sivo 41
dimenticato 41
gira 41
passata 41
cacci@@ 41
uguali 41
Congo 41
Stato 41
sanguigni 41
tecnici 41
viste 41
uale 41
Nelle 41
facci@@ 41
gioca 41
venduto 41
dignità 41
compra 41
ascol@@ 41
rischi@@ 41
liberi 41
verranno 41
o-- 41
direbbe 41
paesaggi 41
nemico 41
riserva 41
previsto 41
teor@@ 41
trarre 41
rivela 41
abituati 41
diapositiva 41
gigante 41
particolari 41
guai 41
pandemia 41
dormire 41
indiani 41
orchestra 41
schiena 41
avvicina 41
vola 41
Air 40
Effizienz 40
Brenn@@ 40
Emissionen 40
Rechner 40
produkt 40
Koh@@ 40
kam@@ 40
arbei@@ 40
diskutieren 40
internationale 40
inklusive 40
weit@@ 40
organis@@ 40
entscheidend 40
hinsichtlich 40
fein@@ 40
Erforschung 40
Köpfen 40
Paris 40
Mut 40
tour 40
heim 40
finanziert 40
leistungs@@ 40
Jahrzehnte 40
Prei@@ 40
fließen 40
kriegt 40
Hinblick 40
kreative 40
Wettbewer@@ 40
Party 40
digt 40
Prin@@ 40
omen 40
Galapagos 40
erend 40
Extrem@@ 40
Komponenten 40
coc@@ 40
que 40
letzter 40
Darauf 40
Auftrag 40
Ground 40
erfüllen 40
vieren 40
nieder@@ 40
hinterlassen 40
Bedarf 40
jeweils 40
schreckliche 40
wem 40
effizient 40
enzen 40
Zug 40
Grün@@ 40
att 40
bilder 40
löst 40
Louis 40
Hunderte 40
Sho@@ 40
Kommunikations@@ 40
44 40
half 40
medizinischen 40
Muskeln 40
annen 40
allgemein 40
heu@@ 40
keiten 40
Ov@@ 40
Miss@@ 40
Abhängigkeit 40
derung 40
flug 40
veran@@ 40
Impfstoff 40
Ach 40
tä@@ 40
ua 40
Sü@@ 40
Ökonomen 40
schlu@@ 40
zahl 40
Mitglied 40
ierter 40
alisten 40
amer@@ 40
Höhepunkt 40
icks 40
zweites 40
Werbe@@ 40
zuhören 40
Tragödie 40
azi@@ 40
endet 40
umfas@@ 40
Außen@@ 40
inneren 40
ws 40
Führung 40
.000 40
ausgest@@ 40
Dalai 40
Tibet 40
bert 40
örung 40
endete 40
fähi@@ 40
ursprüngliche 40
onale 40
einzigartig 40
dunklen 40
Indem 40
ekt 40
zungen 40
Operation 40
Nat@@ 40
neugierig 40
invol@@ 40
sech@@ 40
istan 40
etzen 40
koennen 40
zeug 40
schwarzes 40
errichten 40
realist@@ 40
Rhythmus 40
Neuro@@ 40
fess@@ 40
AT@@ 40
Bol@@ 40
wiederholt 40
Krieg@@ 40
Agnes 40
außergewöhnlich 40
Tanz 40
wahrnehmen 40
issen 40
Interview 40
Magazine 40
Dreh@@ 40
Research 40
install@@ 40
Hai@@ 40
Gei@@ 40
hh 40
Wellen 40
uch@@ 40
besteh@@ 40
bombe 40
Venezuela 40
syn@@ 40
geschützt 40
iper@@ 40
scher@@ 40
tunnel 40
bir@@ 40
onia 40
spec@@ 40
Brooklyn 40
ula 40
Foie 40
omi 40
Costa 40
esca 40
utta 40
cit@@ 40
ONG 40
spese 40
lascio 40
mentalità 40
gravi 40
devamo 40
costruzioni 40
portarlo 40
economie 40
bicicletta 40
Devono 40
voli 40
aument@@ 40
spesa 40
gioc@@ 40
issero 40
immo 40
dirmi 40
imo 40
rimasta 40
Settembre 40
trovai 40
valutare 40
negozi 40
eccezione 40
cominci@@ 40
succederebbe 40
autobus 40
treno 40
Mondo 40
suggerisce 40
regolare 40
girato 40
rilevante 40
andavo 40
musicisti 40
andovi 40
assumere 40
preferite 40
braccia 40
inventare 40
religiosa 40
fotografica 40
legato 40
contribuire 40
grandioso 40
papà 40
saggio 40
interamente 40
costruir@@ 40
decise 40
accedere 40
ottengono 40
decor@@ 40
remmo 40
sentirsi 40
cella 40
preparazione 40
vasta 40
carino 40
esposizione 40
risparmiare 40
iniziarono 40
risult@@ 40
ceranno 40
direzioni 40
sintomi 40
destro 40
provenienti 40
registrazione 40
Etiopia 40
manuale 40
scav@@ 40
scambio 40
microscopio 40
zanzariere 40
pianta 40
coltivatori 40
traccia 40
Menschlichkeit 39
strö@@ 39
I-@@ 39
Koch@@ 39
führenden 39
samer 39
aufr@@ 39
Kapitalismus 39
1945 39
aufnahmen 39
befreien 39
Mangel 39
reiste 39
gewöhnlichen 39
Dynamik 39
Vier 39
Komm 39
Wasserstoff 39
Entdec@@ 39
Großen 39
Dimension 39
Gen 39
karten 39
Yo@@ 39
Expedition 39
timi@@ 39
äumen 39
Dat@@ 39
famili@@ 39
nannten 39
intra@@ 39
rah@@ 39
Bedrohung 39
schlimmsten 39
bot 39
Tja 39
Schi@@ 39
eber 39
geöffnet 39
Tour@@ 39
nachdenkt 39
News 39
finanzieren 39
unterstüt@@ 39
irgendwelche 39
gestaltet 39
Beson@@ 39
sechs@@ 39
rum 39
2,5 39
Ther@@ 39
Kontroll@@ 39
traurig 39
kämpft 39
Erstaun@@ 39
benutzte 39
studiert 39
kel@@ 39
Explosion 39
bst 39
Bandbreite 39
yn 39
symmet@@ 39
mes@@ 39
behaupte 39
tötet 39
kap@@ 39
Quadrat@@ 39
je@@ 39
aum 39
wahren 39
Gemüse 39
lad@@ 39
gegessen 39
gru@@ 39
Lauf 39
isst 39
dün@@ 39
Verteilung 39
mess@@ 39
Pas@@ 39
wit@@ 39
britischen 39
2015 39
eingeb@@ 39
beitragen 39
opti@@ 39
Sony 39
eo@@ 39
chtes 39
tal@@ 39
beträgt 39
schwierige 39
pil@@ 39
effek@@ 39
besuchte 39
Parti@@ 39
ket 39
Ash@@ 39
gering@@ 39
kal@@ 39
visuellen 39
oi 39
artige 39
rid@@ 39
Chip 39
polare 39
ary 39
erledigen 39
Herr@@ 39
pfung 39
Simulation 39
Schicht 39
Individuum 39
meint 39
grös@@ 39
üben 39
hingehen 39
größe 39
wörtlich 39
Cameron 39
essen@@ 39
Montana 39
bewältigen 39
mobile 39
Plastik@@ 39
Kris@@ 39
gewöhnlich 39
ärmsten 39
Reaktionen 39
Aktion 39
ost 39
entierte 39
Schulter 39
zlichen 39
Meme 39
verkaufte 39
Wichtigste 39
ausmacht 39
Dec@@ 39
serv@@ 39
Fa@@ 39
Einrichtungen 39
Darfur 39
roc@@ 39
wechsel@@ 39
Pass@@ 39
rigi@@ 39
Oliver 39
Sat@@ 39
Mola 39
Las@@ 39
Emily 39
pen 39
Nobel 39
Sklaverei 39
sing@@ 39
Ec@@ 39
Pyramide 39
poli@@ 39
ardi 39
profit 39
sensi@@ 39
Schwimmen 39
heh 39
Ivan 39
Americano 39
diment@@ 39
quant@@ 39
iale 39
scegli@@ 39
ettiamo 39
domestici 39
izzati 39
testare 39
laboratori 39
promuovere 39
provano 39
fornisce 39
preoccupa 39
liamo 39
modalità 39
chiedete 39
darci 39
tivamente 39
automobile 39
lumin@@ 39
campione 39
critico 39
impressionante 39
impressione 39
divertenti 39
grave 39
ricostru@@ 39
gersi 39
Dipartimento 39
essione 39
ambito 39
fisicamente 39
trasportare 39
amiamo 39
nuovamente 39
atteggiamento 39
lampadina 39
ammal@@ 39
iniziativa 39
farebbe 39
maschio 39
glielo 39
collettiva 39
Ognuno 39
distruggere 39
cammino 39
cerc@@ 39
leggendo 39
continuazione 39
sessione 39
invit@@ 39
mezz@@ 39
circuito 39
scopre 39
sonda 39
svolta 39
sud@@ 39
lente 39
Inizi@@ 39
fico 39
diate 39
trattato 39
tesi 39
vantaggi 39
andoli 39
riesci 39
pura 39
distrut@@ 39
sommer@@ 39
creata 39
ologico 39
issime 39
cereali 39
quadri 39
torner@@ 39
tsunami 39
cresciuti 39
attr@@ 39
tili 39
identificare 39
depos@@ 39
puntini 39
scientifiche 39
corre 39
Humor 38
kenn@@ 38
geflogen 38
Bord 38
sicht@@ 38
ersetzt 38
Zucker@@ 38
andten 38
kol@@ 38
Konzepte 38
Drogen@@ 38
enormen 38
euren 38
Weltbevölkerung 38
mäch@@ 38
gewöhnliche 38
biet@@ 38
verdoppelt 38
Flug 38
Laufen 38
fließt 38
BMW 38
vielfäl@@ 38
geraten 38
schlau 38
Mach 38
Resultate 38
Kre@@ 38
mehreren 38
Mitglieder 38
atische 38
Rad 38
deckt 38
Tempo 38
öffnet 38
ffe 38
miert 38
Mak@@ 38
antworten 38
mten 38
aku@@ 38
wünschte 38
Nicholas 38
zten 38
tägliche 38
Ken@@ 38
ocken 38
Gerüst 38
stech@@ 38
Tokyo 38
Nation@@ 38
Wirk@@ 38
berech@@ 38
Guten 38
elektr@@ 38
non@@ 38
Leid 38
früh@@ 38
Jugend@@ 38
Sorge 38
Israel 38
irgend 38
deriv@@ 38
schä@@ 38
Signale 38
erstaunlichen 38
Ik@@ 38
woll@@ 38
etten@@ 38
Ära 38
einziges 38
Wir@@ 38
Gedicht 38
richtet 38
binden 38
Gemälde 38
Prozesse 38
Aufstieg 38
Kamer@@ 38
rück@@ 38
arren 38
pfer 38
Trick 38
ecke 38
ght 38
sis 38
brillan@@ 38
ziger 38
Tom@@ 38
Verfahren 38
Geschmack 38
Kö@@ 38
Marke 38
hing 38
able 38
Magazin 38
Tar@@ 38
zweitens 38
auten 38
popul@@ 38
klettern 38
schafften 38
ness 38
Text 38
innovative 38
Steine 38
ffen 38
Teufel 38
Eames 38
Mod@@ 38
bemerkenswerte 38
keinem 38
komplizierte 38
nac@@ 38
itz 38
Zweifel 38
ebt 38
beides 38
dra@@ 38
Anti-@@ 38
Francis 38
Vogel@@ 38
Sha@@ 38
Nairobi 38
ländlichen 38
Aktivitäten 38
live 38
Person@@ 38
wartet 38
mot@@ 38
Argument 38
etes 38
Hirn 38
ns 38
Ret@@ 38
Brüder 38
Lehre 38
Metaphern 38
Joseph 38
Anerkennung 38
Krei@@ 38
gend@@ 38
Leiden 38
astronom@@ 38
grossar@@ 38
akt@@ 38
artig 38
sches 38
problem@@ 38
propor@@ 38
Mark@@ 38
Beru@@ 38
Tsunami 38
Cheryl 38
elen@@ 38
bewegte 38
Sprecher 38
ager 38
Äthiopien 38
emen 38
reicher 38
Füßen 38
visi@@ 38
ppi 38
netz 38
term@@ 38
Partner@@ 38
venti@@ 38
heiße 38
schickte 38
Institution 38
Weißt 38
Ren@@ 38
TS 38
Williams 38
Roman 38
SB 38
dent@@ 38
dose 38
bes 38
ony 38
Cassini 38
gin@@ 38
ky 38
Malt@@ 38
Nathan 38
ident@@ 38
aco 38
tiche 38
logo 38
Grace 38
Pollen 38
Signore 38
bla 38
Atomenergie 38
esten@@ 38
parecchio 38
passer@@ 38
ibile 38
raccoglie 38
dargli 38
Eccolo 38
Arri@@ 38
soglia 38
storico 38
orio 38
deremo 38
occu@@ 38
finanziario 38
separati 38
conoscenze 38
spaziali 38
meravigliose 38
servire 38
sviluppando 38
espansione 38
femminile 38
aggi 38
frammenti 38
ricom@@ 38
metano 38
privilegio 38
prego 38
inserire 38
derò 38
venisse 38
avvenendo 38
entità 38
gentile 38
raffred@@ 38
volti 38
Inglese 38
avviato 38
croll@@ 38
battuta 38
ovvia 38
tessuti 38
bev@@ 38
tal 38
conclu@@ 38
tradizioni 38
mistero 38
occi@@ 38
giun@@ 38
diagramma 38
procedura 38
illuminazione 38
preferito 38
successivi 38
chirurgia 38
college 38
musicali 38
musicista 38
spettacolare 38
invito 38
misi 38
Storia 38
sbagliate 38
guadagnare 38
colloc@@ 38
inata 38
consegn@@ 38
trovarsi 38
chino 38
avventura 38
uccide 38
scaten@@ 38
stupido 38
coordin@@ 38
trovavo 38
imprenditore 38
transistor 38
allung@@ 38
valle 38
create 38
produttore 38
ediamo 38
ecc. 38
contra@@ 38
nastro 38
vicine 38
input 38
falso 38
sorprendenti 38
banche 38
fermar@@ 38
intuizione 38
invitato 38
esistenti 38
andola 38
zzata 38
riconosce 38
moralità 38
isole 38
diversamente 38
Perfetto 38
battito 38
Livello 38
foie 38
Glück@@ 37
umwelt@@ 37
betroffen 37
Wäre 37
unterhalb 37
global 37
tenden 37
materi@@ 37
Fahrrad 37
part@@ 37
heran 37
Dutzend 37
interessantes 37
eite 37
Inneren 37
ertes 37
billiger 37
Venter 37
ass 37
insgesamt 37
Kohlendioxid 37
verschiedener 37
probieren 37
veröffentlichen 37
berichtet 37
äus@@ 37
Alternative 37
dimension@@ 37
dedi@@ 37
klein@@ 37
ehe 37
Je@@ 37
Kabel 37
umher 37
legten 37
zigen 37
freu@@ 37
stür@@ 37
aun@@ 37
überzeu@@ 37
gabe 37
Norman 37
deh@@ 37
verbrauchen 37
ätzen 37
gerichtet 37
knapp 37
Reichweite 37
ling@@ 37
grundlegend 37
außergewöhnliche 37
liebt 37
Schaden 37
Teenager 37
mochte 37
Stamm@@ 37
Angiogenese 37
chtete 37
Rö@@ 37
FG 37
Umstände 37
Santa 37
alisierten 37
blind 37
Richtige 37
Trend 37
Ted 37
zent 37
unendlich 37
Poly@@ 37
herstellt 37
imit@@ 37
Lebensmittel 37
umzugehen 37
Hon@@ 37
Sä@@ 37
innere 37
allgemeinen 37
angehen 37
berühmt 37
bli@@ 37
erfand 37
streben 37
Blog 37
riesiges 37
vorhin 37
Emma 37
ignorieren 37
Fein@@ 37
6.000 37
Bono 37
falschen 37
porter@@ 37
Fotografie 37
handel@@ 37
gewalt@@ 37
altr@@ 37
ebr@@ 37
,000 37
kräfte 37
winzigen 37
protest@@ 37
Zehen 37
jähriger 37
Zähne 37
stischen 37
Kenn@@ 37
ust 37
mechan@@ 37
Rio 37
Bir@@ 37
Faktoren 37
Echtzeit 37
unterhalten 37
Berechnungen 37
Erwartungen 37
Zentral@@ 37
gewann 37
Onkel 37
sionen 37
Rot@@ 37
Akt 37
Katze 37
Gegenstand 37
sensor@@ 37
endste 37
tiv 37
Prize 37
Früh@@ 37
kes 37
Park@@ 37
Dev@@ 37
Hem@@ 37
misst 37
Diplomat 37
Würden 37
verkün@@ 37
ßes 37
Erwärmung 37
oo 37
Gold@@ 37
Company 37
negative 37
oris 37
ald 37
frequ@@ 37
genom@@ 37
Mol@@ 37
Küche 37
Bret@@ 37
Welches 37
Pin@@ 37
Cro@@ 37
sog@@ 37
Stewart 37
American 37
AM 37
Vic@@ 37
Zentimeter 37
Himalaya 37
Tee 37
oso@@ 37
dilemma 37
chio 37
McC@@ 37
Me 37
rug@@ 37
egu@@ 37
inu@@ 37
IM 37
estero 37
acquistare 37
coppia 37
Atlantico 37
esatto 37
Qual' 37
ostacolo 37
inizialmente 37
entusiasmo 37
ballo 37
svel@@ 37
pietre 37
recuperare 37
condiviso 37
viva 37
andarono 37
ridotto 37
ciano 37
scon@@ 37
idr@@ 37
link 37
pronun@@ 37
Ricordate 37
esserlo 37
intrattenimento 37
vivendo 37
quotidiano 37
sedie 37
interr@@ 37
impianto 37
argli 37
identific@@ 37
novità 37
cooperazione 37
nipoti 37
lasciamo 37
incro@@ 37
prevenzione 37
eggiato 37
angiogenesi 37
seduta 37
emozione 37
ingresso 37
erebbero 37
associ@@ 37
crescente 37
scontr@@ 37
quotidiana 37
biologici 37
fiche 37
operazioni 37
caffé 37
Com' 37
stimol@@ 37
vasto 37
senti 37
rapporti 37
prodotta 37
anelli 37
risulta 37
saperlo 37
autori 37
arriviamo 37
vendita 37
toccare 37
bolle 37
parete 37
Numero 37
alizza 37
potevi 37
adott@@ 37
quarta 37
rimangono 37
molecolare 37
segnal@@ 37
iremo 37
Groenlandia 37
spinto 37
diviso 37
Titano 37
coprire 37
alieni 37
Congresso 37
speciali 37
trasmissione 37
volante 37
radicalmente 37
maiali 37
battere 37
impulso 37
ricompensa 37
Cominciamo 37
allarg@@ 37
nazionali 37
espressioni 37
intervista 37
ricordi 37
cariche 37
isolato 37
giocattoli 37
simmetrie 37
micelio 37
38 36
rie 36
Woher 36
versi@@ 36
Verbr@@ 36
vorn 36
ungeheuer 36
involviert 36
Dialog 36
selt@@ 36
Pra@@ 36
schnitt 36
vorzu@@ 36
wozu 36
Innov@@ 36
Orbit 36
Blue 36
Origin@@ 36
V-@@ 36
IBM 36
Gas@@ 36
Angriff 36
ernst@@ 36
flogen 36
Mittagessen 36
quanti@@ 36
Organismus 36
erkunden 36
Proben 36
tre@@ 36
4.000 36
send 36
Kreise 36
Gesetz@@ 36
raffin@@ 36
Gebrauch 36
weitermachen 36
V 36
Start 36
Haw@@ 36
irgendwas 36
schreibe 36
Wetter 36
karte 36
DP 36
Ander@@ 36
Rat@@ 36
zwingen 36
denselben 36
Oktober 36
Christ@@ 36
nd 36
Widerspruch 36
ruhig 36
Nar@@ 36
nahezu 36
under@@ 36
irgendeiner 36
Änderung 36
teri@@ 36
PE@@ 36
gesunde 36
Weltbank 36
Wälder 36
uten 36
GPS 36
Ebenen 36
irdischen 36
Universitäten 36
Heimat 36
mult@@ 36
Gandhi 36
hem@@ 36
ktes 36
Knochen@@ 36
eich@@ 36
schein 36
profitieren 36
erie 36
aster 36
ehrt 36
sozial 36
verein@@ 36
mittleren 36
wundervollen 36
wundervoll 36
hre 36
ollen 36
gebunden 36
trennen 36
Reich 36
sammelt 36
tech@@ 36
Wissenschaft@@ 36
eile 36
kauf@@ 36
Brei@@ 36
lachen 36
Bier 36
MS 36
cken 36
sät@@ 36
Handlung 36
Büchern 36
Sim@@ 36
Volks@@ 36
Harry 36
andlung 36
Ross 36
Flasche 36
ney 36
gewachsen 36
Ster@@ 36
Objekten 36
Hom@@ 36
icke 36
irgendeinem 36
Os@@ 36
Heutzutage 36
äter 36
kriege 36
männer 36
Säu@@ 36
Unfall 36
bezieht 36
Kim 36
Doktor 36
Lama 36
Seattle 36
spieler 36
club 36
nissen 36
oto 36
ktion 36
virtuellen 36
pien 36
zulegen 36
zusätzliche 36
robu@@ 36
Hinweise 36
freundlich 36
licherweise 36
Anfän@@ 36
Schwestern 36
spektakul@@ 36
wes@@ 36
Gedächtnis 36
bewahren 36
musi@@ 36
physischen 36
dies@@ 36
Arab@@ 36
sige 36
früheren 36
Columbia 36
heim@@ 36
MI 36
Batterie 36
dramatisch 36
kö@@ 36
traditionelle 36
sens@@ 36
ordnet 36
Stufen 36
werdet 36
ball 36
Unterwasser@@ 36
Noten 36
neo 36
83 36
Bonobo 36
Panbanisha 36
sil@@ 36
Initiative 36
issi@@ 36
Gesundheitssystem 36
damente 36
Zit@@ 36
42 36
bom@@ 36
Inten@@ 36
Sobule 36
Z 36
dom 36
Quar@@ 36
Franc@@ 36
Slums 36
Sam 36
Bud@@ 36
bit 36
chron@@ 36
Bhutan 36
ong 36
intervi@@ 36
assist@@ 36
Julian 36
Sook 36
clip 36
gete 36
div@@ 36
ii 36
Dai 36
usci@@ 36
ecologia 36
brutta 36
cene 36
tram@@ 36
risorsa 36
introdurre 36
sapr@@ 36
rici 36
scrivendo 36
impianti 36
espan@@ 36
statistica 36
Parigi 36
raddoppi@@ 36
corrispon@@ 36
centinaio 36
cambiata 36
Certamente 36
ridu@@ 36
penser@@ 36
pensavamo 36
presentato 36
dirci 36
marina 36
scoprendo 36
sintesi 36
continuiamo 36
lasciatemi 36
facili 36
Dice 36
operai 36
soddisfare 36
consapevole 36
impiegato 36
possiede 36
collegato 36
costruite 36
affinché 36
tassi 36
Banca 36
scapp@@ 36
nonno 36
acquist@@ 36
sappia 36
controlla 36
arriv@@ 36
scrittore 36
lago 36
evoluzion@@ 36
liquido 36
distor@@ 36
comporta 36
fabbr@@ 36
Immag@@ 36
mangia 36
riuscita 36
entato 36
dute 36
frasi 36
cattive 36
angoli 36
diffuso 36
aperti 36
regalo 36
tare 36
trasmettere 36
sett@@ 36
forno 36
retta 36
siva 36
Diciamo 36
diventò 36
Spesso 36
osserviamo 36
attico 36
chiamati 36
rappresentare 36
tracce 36
convinzioni 36
cattivi 36
superato 36
urbana 36
vorrà 36
Fanno 36
fiore 36
infermiere 36
pratico 36
tè 36
corda 36
sfrutt@@ 36
eccetto 36
consapevoli 36
finanziaria 36
cresc@@ 36
registrato 36
apparten@@ 36
bandiera 36
posizion@@ 36
quantistica 36
corvi 36
mte 35
fahrt 35
tan@@ 35
zurückkommen 35
Januar 35
Ausgaben 35
grün 35
nachhaltig 35
Erfindungen 35
füllt 35
Solarenergie 35
Dorf@@ 35
Dollar-@@ 35
ement@@ 35
umzusetzen 35
Human@@ 35
egel@@ 35
gens 35
Doktor@@ 35
Problem@@ 35
Terror@@ 35
fügt 35
56 35
geschäft 35
ört 35
Henry 35
Teams 35
Mittelpunkt 35
anden 35
Hölle 35
eingeschlossen 35
Pre@@ 35
Motor@@ 35
Ozeans 35
kommenden 35
Vielzahl 35
Schlu@@ 35
Phot@@ 35
1995 35
fügen 35
radio@@ 35
halben 35
chemischen 35
Logo 35
agte 35
Wäh@@ 35
Zäh@@ 35
neulich 35
ältesten 35
Wände 35
Waren 35
aufger@@ 35
ith@@ 35
Pferd 35
1950 35
ziehe 35
verdam@@ 35
Post 35
dreimal 35
Versorgung 35
bringe 35
ausdrücken 35
winzige 35
hoffnungs@@ 35
patri@@ 35
eth@@ 35
trage 35
ool 35
kreu@@ 35
Lungen@@ 35
angepasst 35
verschl@@ 35
gehend 35
DE@@ 35
Köpfe 35
amin@@ 35
mische 35
Dazu 35
aufrecht 35
Produktivität 35
Kay 35
pel@@ 35
anger@@ 35
tatsächliche 35
Engl@@ 35
Beruf 35
boden 35
nerv@@ 35
zir@@ 35
dor 35
ders 35
Fehl@@ 35
wahrschein@@ 35
planet@@ 35
verständlich 35
Autoren 35
einhalb 35
Kyoto 35
Besitzer 35
tlichen 35
abbi@@ 35
Papa 35
benutze 35
Vorgang 35
wach@@ 35
atemberau@@ 35
meter 35
180 35
ministerium 35
5.@@ 35
teure 35
verr@@ 35
massi@@ 35
Wilson 35
schlimm 35
Sitz 35
Hi@@ 35
wendet 35
geren 35
betonen 35
Sav@@ 35
gezwungen 35
grei@@ 35
Blei@@ 35
anen 35
Autismus 35
umher@@ 35
31 35
spei@@ 35
Hinweis 35
Antarktis 35
Wol@@ 35
senken 35
klassische 35
kart@@ 35
Sym@@ 35
Stift 35
al-@@ 35
fehl@@ 35
inver@@ 35
sor 35
glücklicher 35
0.@@ 35
komisch 35
nationale 35
use 35
nicht@@ 35
isi 35
urt 35
Pennsylvania 35
auseinander@@ 35
Symptome 35
mest@@ 35
Köni@@ 35
turb@@ 35
ähnliches 35
Dankeschön 35
netz@@ 35
asso 35
sigkeit 35
fau@@ 35
Gän@@ 35
Ungefähr 35
Handlungen 35
inmitten 35
Palä@@ 35
Nordpol 35
etter@@ 35
uli 35
fried@@ 35
pakist@@ 35
Fal@@ 35
ao 35
Geometrie 35
doc@@ 35
Carnegie 35
figur@@ 35
aca 35
Krähen 35
imbar@@ 35
laptop 35
Bangalore 35
mene 35
Tamiflu 35
ardo 35
fo 35
batterie 35
sali@@ 35
infer@@ 35
bra 35
segn@@ 35
Connectome 35
mmo 35
ordini 35
cres@@ 35
opzioni 35
precisione 35
taglia 35
legate 35
forni@@ 35
pone 35
opinioni 35
preoccupato 35
divert@@ 35
scusate 35
previsione 35
affare 35
moltiplic@@ 35
olino 35
fredda 35
derci 35
contatti 35
filo 35
spingere 35
resa 35
risonanza 35
creative 35
collegamento 35
vot@@ 35
decis@@ 35
elettriche 35
@TED 35
petroli@@ 35
pannelli 35
unici 35
accada 35
eggia 35
nasce 35
racconti 35
Israele 35
cere 35
É 35
pesanti 35
risale 35
ufficiale 35
amato 35
risponde 35
trend 35
periodi 35
ecnologia 35
elettroni 35
increm@@ 35
rendiamo 35
esserne 35
izioni 35
alghe 35
fuori@@ 35
interna 35
ruot@@ 35
guadagn@@ 35
riusciva 35
contento 35
illusioni 35
audio 35
aglia 35
gesto 35
preferita 35
mucca 35
spedi@@ 35
curioso 35
edì 35
toccato 35
carattere 35
intensità 35
rica 35
tipica 35
blocc@@ 35
sos@@ 35
affermazione 35
fuga 35
marini 35
ricevono 35
carbonica 35
televis@@ 35
capitolo 35
limitato 35
assorb@@ 35
offerta 35
africana 35
elettrico 35
rendendo 35
bottiglie 35
elezioni 35
tutela 35
Quante 35
vestito 35
spalla 35
uccise 35
Africani 35
dovere 35
morali 35
pattern 35
ory 34
Beitrag 34
tei@@ 34
spann@@ 34
endsten 34
wal@@ 34
bereiten 34
anzuschauen 34
Heimat@@ 34
werten 34
leidenschaft@@ 34
demokrat@@ 34
ator@@ 34
Gedanken@@ 34
Armee 34
schö@@ 34
ickt 34
rü@@ 34
Interessante 34
station 34
veranst@@ 34
benutzten 34
Allen 34
Kolonien 34
kommerzi@@ 34
genen 34
zierte 34
Lauf@@ 34
ständen 34
Wisst 34
rad 34
Streben 34
stel 34
T-S@@ 34
bedingungen 34
-K@@ 34
Konstru@@ 34
kombinieren 34
zuc@@ 34
mitteln 34
schlechtes 34
Schö@@ 34
Moder@@ 34
way 34
zeu@@ 34
winzig 34
Windows 34
Entwurf 34
Knopf 34
Reihenfolge 34
erklärte 34
Song 34
Digit@@ 34
Rat 34
Plattform 34
Sieben 34
Größenordnung 34
Mechanismus 34
Tax@@ 34
450 34
stimme 34
Ai 34
Belohnung 34
zende 34
äng@@ 34
tiefen 34
Trotzdem 34
verließ 34
Medizin@@ 34
ücken@@ 34
änderte 34
Wechsel@@ 34
geholt 34
gedreht 34
mun@@ 34
identifizieren 34
Leiter 34
zugleich 34
esch@@ 34
Verlangen 34
ausgehen 34
dest 34
Gleich@@ 34
jährlich 34
rale 34
biologisch 34
zubringen 34
Wander@@ 34
urb@@ 34
euer@@ 34
Bruce 34
kühlt 34
unden@@ 34
geleitet 34
Irgend@@ 34
allzu 34
Zehn 34
Geschenk 34
keits@@ 34
abgesehen 34
optimistisch 34
900 34
schein@@ 34
Rückseite 34
Git@@ 34
Dadurch 34
kultur 34
J 34
inter 34
emotionale 34
Anlage 34
regelmäßig 34
wild 34
erschafft 34
yl@@ 34
stadt 34
Mischung 34
Prototypen 34
dustrie 34
berühm@@ 34
brot 34
glamourös 34
amm 34
erweise 34
sicherer 34
fluss 34
CE@@ 34
relevant 34
vermute 34
schrift 34
Herangehensweise 34
May@@ 34
Spiegel@@ 34
Hektar 34
erien 34
räume 34
Werten 34
Länge 34
Kriege 34
Feind 34
wör@@ 34
Sudan 34
Feu@@ 34
verschwindet 34
gkeiten 34
Ken 34
Februar 34
Leh@@ 34
eco 34
exponenti@@ 34
mäß@@ 34
hierfür 34
Pflanzen@@ 34
Wale 34
Green 34
Gig@@ 34
Kreaturen 34
riff 34
kulturellen 34
Techniken 34
ligkeit 34
bildete 34
bos@@ 34
Autor@@ 34
micro 34
ka@@ 34
ueber 34
entgegen 34
entliche 34
Brem@@ 34
Fabrik 34
illegale 34
Sher@@ 34
Vo@@ 34
üch@@ 34
chinesischen 34
geräte 34
Durchmesser 34
Act 34
mist@@ 34
Schon 34
Sarah 34
Dan@@ 34
Herkunft 34
oga 34
enk@@ 34
Bedeut@@ 34
Flügel 34
lie 34
chie 34
Sci@@ 34
dacht 34
Ski 34
Geistes 34
ration@@ 34
Schmerzen 34
Zufriedenheit 34
rifi@@ 34
gedul@@ 34
vie 34
ence 34
Geheimnisse 34
Sac@@ 34
otti@@ 34
tions@@ 34
Nicole 34
Klimawandels 34
ain 34
itte 34
virtu@@ 34
Werke 34
alle@@ 34
gie 34
esp@@ 34
gust@@ 34
ui 34
ibri@@ 34
atar 34
abyte 34
awatt 34
pion@@ 34
ooh 34
Sergio 34
rover 34
NM 34
Halluzinationen 34
Generale 34
Galois 34
Cricket 34
investig@@ 34
dot@@ 34
davamo 34
camer@@ 34
pensiate 34
gimento 34
rice@@ 34
irò 34
amministr@@ 34
fiumi 34
ricordato 34
inutile 34
droga 34
inaspett@@ 34
esprim@@ 34
massima 34
coraggio 34
garage 34
onico 34
andammo 34
centrali 34
composti 34
etici 34
fantastici 34
continuano 34
derete 34
distinguere 34
realizzazione 34
tocc@@ 34
Sul 34
certezza 34
mondiali 34
collegare 34
miglio 34
impronta 34
parcheggio 34
elett@@ 34
tire 34
anello 34
armonia 34
viaggi@@ 34
mortale 34
organo 34
spinger@@ 34
piov@@ 34
chiamò 34
sfug@@ 34
Cerc@@ 34
cammina 34
diventi 34
compagni 34
algoritmi 34
tentato 34
sessuali 34
ologica 34
vene 34
cominciarono 34
penna 34
considero 34
documenti 34
facce 34
morendo 34
medie 34
applicazioni 34
proprietario 34
venite 34
giur@@ 34
egato 34
ripresa 34
capiscono 34
moltissimi 34
Persone 34
vendite 34
iate 34
omia 34
emerge 34
ragionamento 34
ringrazio 34
procur@@ 34
legata 34
nuvola 34
attore 34
stanze 34
farete 34
colonie 34
finestre 34
corretto 34
operare 34
incontrano 34
voti 34
consumatore 34
antibiotici 34
compleanno 34
fermo 34
esemplari 34
continenti 34
affidabile 34
anidride 34
adesivo 34
variazioni 34
aero@@ 34
fiato 34
riconos@@ 34
diametro 34
vacc@@ 34
tasca 34
osità 34
interagiscono 34
arrampic@@ 34
impara 34
indiano 34
social 34
plus 33
niedrig 33
aufen 33
ankommt 33
leistung 33
näch@@ 33
vielmals 33
kochen 33
ungeh@@ 33
Tode 33
ahmen 33
Zehn@@ 33
öff@@ 33
wissen@@ 33
terror@@ 33
riert 33
,5 33
zeugen 33
Pläne 33
gehoben 33
Wett@@ 33
zuhause 33
Mus@@ 33
lauf 33
technisch 33
gesellschaft 33
Rock 33
geformt 33
auszudrücken 33
Besitz 33
blick 33
knü@@ 33
künstler@@ 33
1996 33
Vegas 33
zimmer 33
Mist 33
erreg@@ 33
Lesen 33
appen@@ 33
Stat@@ 33
kurzer 33
Kolum@@ 33
Einfach 33
ppen@@ 33
Box 33
leuchten 33
sprache 33
Standard 33
US@@ 33
Amerikas 33
gezeichnet 33
beoba@@ 33
E-Mail 33
ück@@ 33
klang 33
fokussieren 33
strei@@ 33
großartiger 33
ahn@@ 33
dicht 33
Gre@@ 33
währ@@ 33
stattfinden 33
stammen 33
Chines@@ 33
lehrt 33
wütend 33
tiefe 33
leucht@@ 33
Kalk@@ 33
essoren 33
Neur@@ 33
Nerven@@ 33
zeichnung 33
Stammzellen 33
Physi@@ 33
potenti@@ 33
bedeckt 33
vic@@ 33
Abstand 33
beziehen 33
Schreibtisch 33
erledigt 33
übt 33
Schlaf@@ 33
Ruhe 33
Zeu@@ 33
Geni@@ 33
Geistes@@ 33
gerung 33
dat@@ 33
anna 33
Viel 33
Erden 33
ehre 33
bot@@ 33
kens 33
Sing@@ 33
Regel@@ 33
süß 33
dominante 33
anten@@ 33
komplette 33
Vari@@ 33
uli@@ 33
Online-@@ 33
Maria 33
dazwischen 33
schli@@ 33
Plastik 33
uter 33
Non@@ 33
flächen 33
Van 33
schieben 33
icht 33
ries@@ 33
ursprünglichen 33
Schild 33
will@@ 33
wunderschönen 33
haut 33
disch 33
schuf 33
gefährliche 33
Reichtum 33
überprüfen 33
holte 33
kleinere 33
Strategien 33
rapi@@ 33
St. 33
Val@@ 33
liste 33
kan 33
Viel@@ 33
einstellen 33
Zelt 33
Stamm 33
spielten 33
Kurzem 33
rice 33
fik@@ 33
Könnte 33
breit 33
verhäl@@ 33
Objek@@ 33
zentralen 33
SARS 33
sign@@ 33
schwin@@ 33
Negroponte 33
Titan 33
symbol@@ 33
Vir@@ 33
Decke 33
Patient@@ 33
zun@@ 33
transportieren 33
gros@@ 33
langes 33
lauf@@ 33
faszinierende 33
elegante 33
izi@@ 33
East 33
gemäß 33
startete 33
Landschaften 33
onie 33
eur 33
4.@@ 33
Ballon 33
bott@@ 33
Kir@@ 33
rad@@ 33
Besten 33
Interviews 33
eröffnen 33
App@@ 33
zliches 33
maßen 33
sozialer 33
Cli@@ 33
gestiegen 33
abil@@ 33
Leone 33
Bergsteiger 33
Autorität 33
Anreize 33
ökonomischen 33
onor@@ 33
Date 33
Pflanze 33
anhalten 33
Super 33
sint@@ 33
Organe 33
fundamentale 33
Hyper@@ 33
Babies 33
fressen 33
Anhänger 33
Ok@@ 33
Barack 33
Gal@@ 33
PM 33
Virgin 33
impon@@ 33
ep 33
unt 33
Orchester 33
Us@@ 33
pros@@ 33
Coll@@ 33
tech 33
filtr@@ 33
Schwefelwasserstoff 33
espl@@ 33
Luther 33
bon@@ 33
duc@@ 33
Salve 33
assu@@ 33
ionale 33
zo 33
dol@@ 33
flui@@ 33
esco 33
sara 33
duto 33
controllato 33
immagazz@@ 33
personalmente 33
esame 33
attentamente 33
Parl@@ 33
aci 33
consenso 33
Terzo 33
laurea 33
giudizio 33
ostacoli 33
cicli 33
sviluppa 33
privata 33
darà 33
troverete 33
accettato 33
innamor@@ 33
lavorava 33
temperature 33
catturare 33
Fatemi 33
ritardo 33
realta 33
diventate 33
ammettere 33
tira 33
voc@@ 33
scrive 33
etro 33
scontato 33
affrontato 33
meraviglia 33
popol@@ 33
eccit@@ 33
adulto 33
centimetri 33
moderni 33
mezz' 33
potabile 33
dessero 33
ppo 33
ciascun 33
segni 33
disperazione 33
svilup@@ 33
vivevano 33
neppure 33
odio 33
fama 33
essivo 33
specifiche 33
scrittori 33
consigli@@ 33
izzata 33
dirà 33
forz@@ 33
pitt@@ 33
transizione 33
cioé 33
contano 33
chiederci 33
partecip@@ 33
modific@@ 33
bastone 33
grassi 33
invisibili 33
Museo 33
scavare 33
spirituale 33
foste 33
irci 33
scoprì 33
traduzione 33
ricche 33
componente 33
negozi@@ 33
creatore 33
lavoravo 33
introdotto 33
ONU 33
deranno 33
Crediamo 33
feri 33
nell 33
topi 33
ricord@@ 33
terapie 33
convinzione 33
indipendenti 33
essioni 33
composizione 33
contengono 33
imbrogli@@ 33
assai 33
Vedo 33
fermato 33
meridionale 33
sede 33
determina 33
Ricordo 33
fatica 33
goccia 33
delfini 33
riceve 33
tolto 33
Già 33
orso 33
calorie 33
sensazioni 33
familiari 33
tito 33
lacrime 33
sentir@@ 33
comportamentale 33
cammello 33
squalo 33
impasto 33
Force 32
Phant@@ 32
Projek@@ 32
Verkehr 32
präsentieren 32
annten 32
Qual@@ 32
itzt 32
klare 32
ektion 32
Planung 32
gelehrt 32
ausführen 32
fizieren 32
'000 32
Dezember 32
Arbeitsplätze 32
hilf@@ 32
Mobil@@ 32
Kol@@ 32
änen 32
zeuge 32
getestet 32
Riesen@@ 32
Reisen 32
behörde 32
privaten 32
gewinnt 32
akzeptiert 32
wohnt 32
bs 32
infi@@ 32
schätze 32
intensiv 32
ösen 32
verdammt 32
Genen 32
Wa@@ 32
schnitte 32
ium 32
bedarf 32
arma@@ 32
darzustellen 32
intelligent 32
vorkommen 32
1997 32
lege 32
wiesen 32
Sper@@ 32
holz 32
konfrontiert 32
Sitz@@ 32
erfüllt 32
Umgang 32
Bemer@@ 32
Künst@@ 32
erschien 32
Union 32
ungsmittel 32
Produ@@ 32
och 32
Fahrzeuge 32
Hören 32
atischen 32
anbieten 32
bun@@ 32
fischen 32
jagen 32
rige 32
ftet 32
üre 32
wohnen 32
Verzweiflung 32
Labor@@ 32
Krebs@@ 32
reparieren 32
Schwarz@@ 32
neuesten 32
angekommen 32
zeln 32
würdest 32
Herbie 32
drüber 32
tollen 32
Anthrop@@ 32
chst@@ 32
ew@@ 32
löschen 32
industrielle 32
steigen@@ 32
gefüllt 32
beantwortet 32
experiment@@ 32
perfekten 32
Branche 32
berühmten 32
Aufzeichnungen 32
Form@@ 32
Na@@ 32
änge 32
Vortrags 32
stets 32
Galileo 32
durfte 32
positiven 32
privileg@@ 32
Jag@@ 32
verges@@ 32
angeschaut 32
Source 32
oßen 32
Anwendungen 32
Linux 32
potenzi@@ 32
anstellen 32
übersetzt 32
Fett 32
tor 32
Verbraucher 32
zweieinhalb 32
pot 32
Schwarze 32
tierten 32
bewirkt 32
definitiv 32
zueinander 32
Größ@@ 32
ologischen 32
Betrachten 32
änden 32
Militär 32
Reden 32
Könnten 32
bia 32
hop 32
prei@@ 32
Röntgen@@ 32
Etwa 32
klug 32
Kibera 32
Summe 32
beliebt 32
ebe@@ 32
Ost@@ 32
Zy@@ 32
Babys 32
edere 32
geschwindigkeit 32
Spur 32
Dunkelheit 32
kehr@@ 32
Kreislauf 32
Anzeige 32
Bescheid 32
besonderen 32
rol@@ 32
Schiff@@ 32
Graham 32
Ursache 32
benen 32
irrit@@ 32
ftung 32
Hawking 32
redet 32
Log@@ 32
Schwerkraft 32
Dave 32
glück@@ 32
leihen 32
gigan@@ 32
nationalen 32
pers@@ 32
wohlhab@@ 32
Gesundheit@@ 32
TEDGlobal 32
formt 32
Exxon 32
ir 32
Nike 32
deb@@ 32
300.000 32
Versuche 32
spontan@@ 32
1970 32
ausbr@@ 32
Ron 32
ly 32
Det@@ 32
Susan 32
unterrichtet 32
Project 32
täglichen 32
chinesische 32
vermittelt 32
schwerer 32
ol 32
Jesus 32
europ@@ 32
ington 32
Dienstleistungen 32
impression@@ 32
orenen 32
Pack@@ 32
ridi@@ 32
IDEO 32
konstruiert 32
Erinnerungen 32
Ausschnitt 32
TA@@ 32
Margaret 32
Goldene 32
Sommer@@ 32
forschung 32
Tes@@ 32
usse 32
ater@@ 32
Mais 32
Hoff@@ 32
ji 32
Moral@@ 32
Krab@@ 32
Princeton 32
&amp;@@ 32
tac@@ 32
oti@@ 32
Gletscher 32
PH 32
pom@@ 32
navig@@ 32
Spektr@@ 32
esima 32
RISD 32
anat@@ 32
stress 32
Basta 32
sopr@@ 32
insist@@ 32
cot@@ 32
diti 32
adottare 32
ringraziare 32
aeroplano 32
eggio 32
ridur@@ 32
condivide 32
tubi 32
cucinare 32
generato 32
eccoci 32
ripensare 32
Viviamo 32
timo 32
rimasti 32
izione 32
giocattolo 32
comin@@ 32
biglietti 32
provate 32
Funziona 32
pausa 32
abbondanza 32
chiesti 32
guidato 32
radiazioni 32
spera 32
religiosi 32
camminando 32
lusso 32
ristoranti 32
acu@@ 32
troppe 32
lasci 32
corretta 32
import@@ 32
ritengo 32
trasporti 32
cavalli 32
isolati 32
sorri@@ 32
ripar@@ 32
sensibile 32
sorelle 32
Pren@@ 32
mangiamo 32
tumori 32
seno 32
pericolosa 32
necess@@ 32
fero 32
tut@@ 32
togliere 32
dopamina 32
pensar@@ 32
psicolog@@ 32
casuale 32
capir@@ 32
piaciuto 32
reinvent@@ 32
Vai 32
strane 32
fenomeni 32
margini 32
inglesi 32
condann@@ 32
educativo 32
appunto 32
singole 32
apparentemente 32
organico 32
prototipi 32
tentare 32
giocano 32
americane 32
svolgere 32
economista 32
regal@@ 32
essivamente 32
notate 32
zzazione 32
nuvole 32
rendo 32
appoggi@@ 32
ascolto 32
intrec@@ 32
autismo 32
legali 32
meccan@@ 32
prevedibile 32
razionale 32
descrizione 32
riduce 32
derla 32
lontana 32
Seconda 32
impedi@@ 32
elementari 32
industriali 32
torno 32
acquisto 32
attu@@ 32
intenzioni 32
soccorso 32
struttur@@ 32
sperimentazione 32
cardiaca 32
appello 32
facevamo 32
sani 32
sanitari 32
ingredienti 32
vedeva 32
titoli 32
interazioni 32
core@@ 32
caric@@ 32
scrittura 32
ottica 32
parassiti 32
Lasciatemi 32
cantare 32
ritor@@ 32
chiediamo 32
particella 32
stringhe 32
pieghe 32
Nachrichten@@ 31
Energien 31
Transport@@ 31
formu@@ 31
berechnen 31
Kurs 31
politisch 31
entwicklung 31
fantastischen 31
U.S. 31
lok@@ 31
betri@@ 31
Bag@@ 31
Verbesserung 31
Prozesses 31
erwähnte 31
Arbeit@@ 31
wiederholen 31
absolute 31
geblieben 31
Terrorismus 31
ausgebildet 31
dienst 31
Tex@@ 31
Raumfahr@@ 31
zumachen 31
überlebt 31
herbei@@ 31
Selektion 31
Arti@@ 31
corde 31
Gegenstände 31
Einmal 31
Gem@@ 31
Las 31
großartiges 31
folge 31
ular 31
Tränen 31
Carl 31
Mann@@ 31
Sequenz 31
unsichtbar 31
entdeckten 31
1,3 31
Bedenken 31
programme 31
proz@@ 31
leiter 31
ität@@ 31
Versionen 31
Klar 31
Restaurants 31
Tür@@ 31
aßen 31
klu@@ 31
wünschen 31
gefühl 31
Gespräche 31
Kamen 31
aktuellen 31
gelang 31
städte 31
Gef@@ 31
Meile 31
min 31
Benzin 31
tigten 31
prakti@@ 31
unterscheidet 31
Pap@@ 31
geredet 31
klop@@ 31
Beobachtung 31
Übung 31
Näch@@ 31
Persönlichkeit 31
fleisch 31
kannten 31
virtuelle 31
begleitet 31
Redner 31
teilten 31
Leber 31
dauer@@ 31
fange 31
Egal 31
chaot@@ 31
basierte 31
Simon 31
Ingenieur 31
positi@@ 31
depressi@@ 31
trä@@ 31
Part@@ 31
Mannes 31
abor@@ 31
aufeinander 31
gelingt 31
ausreichend 31
holt 31
wissenschaft 31
Ai@@ 31
Tendenz 31
maschinen 31
prinzi@@ 31
erlangen 31
8.@@ 31
ocken@@ 31
träumen 31
vermögen 31
Bedürfnis 31
hand 31
Bank@@ 31
kopf 31
zwanzig 31
Balance 31
Astron@@ 31
such@@ 31
Illusion 31
englischen 31
umin@@ 31
tolles 31
amera 31
Maße 31
mächtige 31
offene 31
Sign@@ 31
kontrol@@ 31
schlei@@ 31
leitung 31
weis 31
exist@@ 31
uelle 31
Güte 31
lie@@ 31
umge@@ 31
drinnen 31
langwei@@ 31
militä@@ 31
Kuh 31
Kühe 31
itt 31
städtischen 31
bedienen 31
high 31
Sudhir 31
Ohr 31
asien 31
Mode@@ 31
stattfindet 31
1983 31
wn@@ 31
Wolke 31
Lag@@ 31
g-@@ 31
Dien@@ 31
stag 31
Vorbild 31
losigkeit 31
lernten 31
west@@ 31
haftes 31
äß@@ 31
Mehr@@ 31
gewissem 31
Angel@@ 31
größeres 31
ars 31
Atome 31
1968 31
dop@@ 31
Appar@@ 31
Älterwerden 31
entsprechend 31
E-@@ 31
Gravitation 31
verringern 31
krieg@@ 31
Nadel 31
orene 31
mone 31
mier@@ 31
greif@@ 31
Frequenz 31
heutige 31
ong@@ 31
Poster 31
Arizona 31
Auswirkung 31
nachhaltige 31
Dies@@ 31
Rech@@ 31
aktive 31
ehnen 31
Praxis 31
Ba@@ 31
Mot@@ 31
Guar@@ 31
Start@@ 31
lig@@ 31
Jerry 31
Barmherzigkeit 31
Höhle 31
gif@@ 31
Entwicklungshilfe 31
beachten 31
sicherstellen 31
Mounta@@ 31
bedroht 31
anci@@ 31
Charaktere 31
rieren 31
Ansichten 31
Lehrerin 31
gradu@@ 31
jenes 31
herein 31
zweif@@ 31
Wach@@ 31
brasili@@ 31
bank 31
Kongo 31
vertik@@ 31
ope 31
Sum@@ 31
Fund 31
ath@@ 31
fei@@ 31
HIV-@@ 31
arab@@ 31
usi@@ 31
vin 31
andau@@ 31
wärmer 31
Göt@@ 31
mobil@@ 31
Walker 31
Chinesen 31
prostitu@@ 31
quar@@ 31
stein@@ 31
Stone 31
sinkt 31
more 31
Parkinson 31
riecht 31
bein@@ 31
Origami 31
Ethik 31
Mah@@ 31
sogenannte 31
separate 31
tar@@ 31
Lebensraum 31
Termin@@ 31
7.000 31
robot@@ 31
Symmetrien 31
schutz 31
ó 31
GB 31
OL@@ 31
ron 31
Eur@@ 31
elementare 31
ps@@ 31
fos@@ 31
esistente 31
cast@@ 31
ambul@@ 31
Via 31
user@@ 31
Langley 31
bolla 31
resistente 31
Ushahidi 31
mili@@ 31
marine 31
Poco 31
successa 31
mostrando 31
coinvolte 31
causato 31
lavoravano 31
lento 31
cic@@ 31
Vengono 31
tornati 31
campagne 31
divis@@ 31
appassionato 31
istruzioni 31
aerea 31
artistico 31
marcia 31
passate 31
silenzi@@ 31
operativo 31
zzate 31
schiacci@@ 31
ascoltate 31
spunt@@ 31
richiesto 31
installazione 31
prescindere 31
percep@@ 31
vapore 31
eamente 31
gatti 31
facesse 31
metropolitana 31
producendo 31
portatili 31
compagno 31
premi 31
dimostrano 31
contamin@@ 31
sentii 31
polmoni 31
dedic@@ 31
Continu@@ 31
splendido 31
sindaco 31
evoluto 31
occupazione 31
Occidentale 31
mati 31
alzato 31
magnifico 31
biologo 31
minerali 31
conosciute 31
alizzate 31
circond@@ 31
collezion@@ 31
Nuova 31
archivio 31
cambierà 31
raggiunge 31
interrog@@ 31
connettere 31
attive 31
bizzarro 31
alza 31
adatta 31
trasparente 31
Lavoro 31
Faccio 31
preoccupano 31
avevi 31
cambiate 31
distingu@@ 31
correttamente 31
malgrado 31
minima 31
luci@@ 31
fortemente 31
spostarsi 31
incar@@ 31
rapido 31
dominio 31
pose 31
giov@@ 31
arità 31
curve 31
Quattro 31
rivoluzion@@ 31
virtuali 31
irebbe 31
prosegu@@ 31
proporzione 31
cuori 31
programmazione 31
fisiche 31
idro@@ 31
meme 31
seria 31
addosso 31
vigi@@ 31
derli 31
investitori 31
emergenza 31
ogramma 31
restitu@@ 31
ereste 31
rilevare 31
occidente 31
alizziamo 31
ezze 31
pastore 31
conosciuta 31
vamo 31
Nonostante 31
monitor@@ 31
riflett@@ 31
Adoro 31
ogi@@ 31
azoto 31
fluttu@@ 31
impeg@@ 31
telecamere 31
filantropia 31
conservazione 31
radiazione 31
Abendessen 30
freuen 30
Krit@@ 30
fossile 30
Produkten 30
senen 30
verbrennen 30
aufhalten 30
egenden 30
Landkarte 30
schlimmste 30
Verantwort@@ 30
kritische 30
Übertragung 30
altungs@@ 30
ellem 30
quali@@ 30
Entwicklungen 30
konvention@@ 30
Ernst 30
20-@@ 30
Geheim@@ 30
kurs 30
lien 30
italien@@ 30
Weltraum@@ 30
anfängt 30
Kn@@ 30
gesucht 30
rüber 30
Bran@@ 30
harte 30
Apollo 30
Juni 30
etischen 30
Elizabeth 30
branche 30
lösung 30
Interpretation 30
Pion@@ 30
Pause 30
Pazifik 30
kompon@@ 30
ungsweise 30
Bakterium 30
belast@@ 30
explodi@@ 30
Methan 30
Auffassung 30
natürlicher 30
abschließen 30
ann 30
zahlt 30
Datenbank 30
ou@@ 30
zeug@@ 30
Öff@@ 30
geladen 30
Garage 30
Chr@@ 30
schmut@@ 30
Offensichtlich 30
Gelände 30
nam@@ 30
stück@@ 30
kurzes 30
Somit 30
190@@ 30
Beach 30
Umgebungen 30
grad 30
Wärme 30
1985 30
Tansania 30
Gras@@ 30
Durchbruch 30
nö@@ 30
Schau 30
eßen 30
High@@ 30
Therapie 30
Gehry 30
mas 30
Ky@@ 30
Lev@@ 30
ierenden 30
hebt 30
kenden 30
Antrieb 30
asso@@ 30
Buches 30
Algorithmen 30
beln 30
Linsen 30
wunderschön 30
Impfstoffe 30
Kühl@@ 30
steigern 30
Boden@@ 30
ood 30
Dav@@ 30
Produkt@@ 30
effekt 30
Samm@@ 30
Mozart 30
com 30
prüfen 30
Camp@@ 30
nochmals 30
cker 30
Operationen 30
irgendein 30
zut@@ 30
Spuren 30
Fant@@ 30
ph 30
ee@@ 30
alog@@ 30
gemeinnüt@@ 30
Ler@@ 30
Bon@@ 30
trieben 30
einzusetzen 30
Bewohner 30
Lehrern 30
wissenschaft@@ 30
gliche 30
ock 30
intelligenten 30
hindurch 30
eol@@ 30
Erfolgs@@ 30
hoher 30
lers 30
Mythos 30
liefer@@ 30
olle 30
generell 30
gst 30
1975 30
Vorder@@ 30
Cr@@ 30
Lange 30
repräsentieren 30
Feh@@ 30
Gestaltung 30
Vent@@ 30
Funktion@@ 30
AA 30
ards 30
Freu@@ 30
numer@@ 30
Doppel@@ 30
bieren 30
Inder 30
streiten 30
by@@ 30
eits@@ 30
unver@@ 30
eilen 30
Fotograf 30
Colom@@ 30
Sach@@ 30
massiven 30
ön@@ 30
Alex 30
schlussendlich 30
teilte 30
Hügel 30
mäßigen 30
zurecht@@ 30
Türkei 30
eka 30
selb@@ 30
religiöse 30
IR@@ 30
klin@@ 30
ear@@ 30
Jahrzehnten 30
wirkung 30
zurückl@@ 30
Mess@@ 30
sinni@@ 30
verbreitete 30
Antibiotika 30
umm@@ 30
Child 30
Andr@@ 30
einander@@ 30
britische 30
59 30
estra@@ 30
Kompon@@ 30
üte 30
oide 30
wodurch 30
G-@@ 30
Charakter@@ 30
zustand 30
geschi@@ 30
bed@@ 30
isa 30
Berechnung 30
ju@@ 30
echen 30
Stoff 30
glichkeit 30
stin 30
Sektor 30
erd@@ 30
Experim@@ 30
Klinik 30
Afrik@@ 30
Andrew 30
Alters@@ 30
simulieren 30
ES@@ 30
1980 30
untere 30
3-@@ 30
digkeit 30
Abenteuer 30
agon@@ 30
Taliban 30
Schau@@ 30
Rachel 30
T. 30
religiösen 30
Plötzlich 30
Fernseher 30
mals 30
westliche 30
lingen 30
indische 30
Stra@@ 30
dag@@ 30
Erzähler 30
) 30
lava 30
ungser@@ 30
trainiert 30
Strö@@ 30
Filmen 30
Bot@@ 30
ort@@ 30
Roten 30
ande 30
sprang 30
lingu@@ 30
pern 30
ausch 30
Genauso 30
Hur@@ 30
utzen 30
Nachfrage 30
tischen 30
Wichtigkeit 30
umar@@ 30
vide@@ 30
Intel 30
Haie 30
aul@@ 30
verpflichtet 30
osphäre 30
Geschichtenerzäh@@ 30
Ali@@ 30
tin 30
Thula 30
wärts 30
aker 30
Tit@@ 30
uff@@ 30
comput@@ 30
bamb@@ 30
baby 30
Abraham 30
ZK 30
KS 30
Nollywood 30
petto 30
cell@@ 30
orno 30
norme 30
Benki 30
fram@@ 30
Beck 30
averne 30
commenti 30
appren@@ 30
risparmio 30
preoccupazione 30
svilupp@@ 30
imenti 30
primavera 30
collasso 30
infezioni 30
usavano 30
pulito 30
cemento 30
peggior 30
seguente 30
pochissimi 30
incluso 30
aveste 30
terrore 30
appassion@@ 30
tentativi 30
ricer@@ 30
dozzine 30
panorama 30
scheletro 30
fatt@@ 30
considerano 30
trascin@@ 30
caratter@@ 30
definisce 30
cau@@ 30
modificare 30
etanolo 30
proposto 30
giornalisti 30
sufficienza 30
lettori 30
scorrere 30
documento 30
Sulla 30
agio 30
istiche 30
ezioni 30
approv@@ 30
uali 30
conversazioni 30
comport@@ 30
tività 30
concorso 30
incoraggiare 30
dimento 30
viveva 30
ingegner@@ 30
preoccupati 30
marci@@ 30
cad@@ 30
aviaria 30
emozionante 30
affetto 30
bacino 30
tagliato 30
cercavo 30
trovò 30
morì 30
arrivai 30
appropriato 30
ottieni 30
raneo 30
celebr@@ 30
otico 30
presentano 30
portarono 30
incontri 30
cort@@ 30
lasciano 30
fibre 30
aumentano 30
significhi 30
Esistono 30
specifici 30
grafici 30
inciso 30
cari 30
fondata 30
zziamo 30
Nello 30
massiccio 30
riche 30
indiri@@ 30
attribu@@ 30
poeta 30
esau@@ 30
proven@@ 30
interviste 30
dipendente 30
seggiolini 30
impedire 30
ottimi@@ 30
anon@@ 30
Arriv@@ 30
singoli 30
lancia 30
verlo 30
collegamenti 30
iscano 30
inva@@ 30
trib@@ 30
eci 30
ottenete 30
controlli 30
baraccopoli 30
pompa 30
basse 30
riflette 30
dev' 30
vorranno 30
Est 30
irli 30
circuiti 30
iali 30
pericolosi 30
logico 30
tocca 30
dure 30
atomica 30
artic@@ 30
catore 30
attravers@@ 30
rinnov@@ 30
protegger@@ 30
giunto 30
sahariana 30
sostegno 30
ampi@@ 30
eccesso 30
ruotare 30
indossare 30
roves@@ 30
bambine 30
visualizzazione 30
uscite 30
talenti 30
verificare 30
Gesù 30
buon@@ 30
dimentic@@ 30
potenzialmente 30
bizzarra 30
tuta 30
raramente 30
cherò 30
delfino 30
icana 30
individuale 30
occidentali 30
filamenti 30
connettoma 30
Weißen 29
öffnete 29
dankbar 29
Jahres@@ 29
Management 29
geschlos@@ 29
gesetz@@ 29
stün@@ 29
Tausenden 29
passte 29
erinnerte 29
schluss@@ 29
freue 29
wüsste 29
Kör@@ 29
häss@@ 29
anzen 29
saubere 29
minister 29
handel 29
Video@@ 29
ativ@@ 29
ausprobiert 29
yp 29
kehrt 29
Spielzeug 29
anischer 29
staatliche 29
Endes 29
Autom@@ 29
stände 29
wow 29
verschw@@ 29
tanzen 29
Kanal 29
Artenvielfalt 29
fam@@ 29
Dawkins 29
Weltall 29
komplexer 29
zukünftige 29
halb@@ 29
ils 29
Gerade 29
achtet 29
fahre 29
Angestellten 29
PS 29
vierten 29
th 29
aufgestellt 29
-St@@ 29
liefen 29
mach@@ 29
ühen 29
tiver 29
beschäftigte 29
läch@@ 29
Watt 29
wiegt 29
analysieren 29
gebrauchen 29
Roots 29
Apart@@ 29
ocke 29
International 29
gewebe 29
Prog@@ 29
wand@@ 29
Sit@@ 29
schlecht@@ 29
Bürgermeister 29
Teppich 29
samm@@ 29
charakter@@ 29
Fakt 29
Durchschnitt@@ 29
wün@@ 29
verknüpft 29
Ira@@ 29
stop@@ 29
lese 29
off 29
benden 29
Coc@@ 29
vollstän@@ 29
luc@@ 29
Pilze 29
zugehen 29
gom@@ 29
Übergang 29
Spiels 29
Pian@@ 29
Prego 29
Studium 29
has@@ 29
by 29
Führ@@ 29
chter@@ 29
Schülern 29
experim@@ 29
irdische 29
dimensionale 29
programmiert 29
gehei@@ 29
Refer@@ 29
199@@ 29
Jennifer 29
fiziert 29
graus@@ 29
Einzelnen 29
übersetzen 29
altete 29
interpretieren 29
Dir 29
Genie 29
jederzeit 29
vertrau@@ 29
sorgt 29
anges@@ 29
Letztes 29
Geschäft@@ 29
wirtschaftlich 29
Unfälle 29
gur@@ 29
älteren 29
Absol@@ 29
kontinuier@@ 29
erstaun@@ 29
NO@@ 29
Satelliten 29
Wolken 29
Plak@@ 29
Richter 29
ungen@@ 29
gangs@@ 29
onen@@ 29
Absichten 29
Sy@@ 29
Hob@@ 29
sek@@ 29
beeindruckt 29
Dennett 29
achter 29
Kopie 29
RNA 29
Fav@@ 29
fair 29
ells 29
ays 29
ellos 29
verschieden@@ 29
Paradigma 29
moralisch 29
Gründer 29
widmen 29
Diag@@ 29
rup@@ 29
Pfl@@ 29
scont@@ 29
Erlaubnis 29
schätzung 29
zukünftigen 29
entes 29
leer 29
quil@@ 29
perman@@ 29
beizubringen 29
zerst@@ 29
Kapit@@ 29
Toyota 29
7.@@ 29
57 29
esser 29
Banken 29
ökologischen 29
plätze 29
verletz@@ 29
innov@@ 29
tnisse 29
Internets 29
Erdbeben 29
Preis@@ 29
an-@@ 29
Rettung 29
migr@@ 29
fordern 29
otten 29
schrecklichen 29
engl@@ 29
AIDS-@@ 29
Wortes 29
garanti@@ 29
sfr@@ 29
Great 29
Coca-Cola 29
sst 29
Ökologie 29
auftauchen 29
Ham@@ 29
asser@@ 29
pass 29
ehmen 29
Tele@@ 29
Flagge 29
seri@@ 29
noti@@ 29
Miller 29
Schädel 29
perfek@@ 29
Habe 29
Getreide 29
Ehr@@ 29
Scri@@ 29
niedri@@ 29
Acumen 29
ausgewählt 29
Gilbert 29
1949 29
Frü@@ 29
Halb@@ 29
personen 29
get 29
trainieren 29
Brit@@ 29
Glaube 29
agno@@ 29
Beschreibung 29
Cont@@ 29
transportiert 29
osci@@ 29
Katzen 29
Sensoren 29
Afr@@ 29
strahl 29
enc@@ 29
Bond 29
Reis 29
Bombe 29
1900 29
blog@@ 29
Korallen@@ 29
endente 29
Pfleg@@ 29
Collider 29
food 29
ango 29
SI@@ 29
aug@@ 29
E8 29
DL 29
tos@@ 29
Sistema 29
rabb@@ 29
Libellen 29
irle 29
Entr@@ 29
Dubai 29
staff 29
rotta 29
salta 29
brevi 29
entusias@@ 29
accia 29
puro 29
debbano 29
nè 29
parametri 29
debito 29
agenda 29
racconterò 29
droghe 29
pio 29
leggen@@ 29
guid@@ 29
costruiti 29
Dato 29
femmin@@ 29
contatt@@ 29
decisero 29
arrivarono 29
incirca 29
Oceano 29
correl@@ 29
blocchi 29
vende 29
clic@@ 29
entrati 29
magnetico 29
fargli 29
Dall' 29
altamente 29
collass@@ 29
semplic@@ 29
coinci@@ 29
immensa 29
omeno 29
approfon@@ 29
elicottero 29
chiedervi 29
bite 29
accendere 29
terzi 29
pressioni 29
Fortunatamente 29
gesti 29
umorismo 29
sposta 29
inevitabile 29
aumentando 29
affascinanti 29
vono 29
document@@ 29
scheletrico 29
improbabile 29
assur@@ 29
contratto 29
salutare 29
tracci@@ 29
interessano 29
pasto 29
fantasia 29
soffrono 29
costruiamo 29
cro@@ 29
variazione 29
immunitario 29
prec@@ 29
Eccone 29
sostituire 29
neurone 29
sosp@@ 29
Consider@@ 29
consul@@ 29
pensò 29
estin@@ 29
mangiato 29
avrò 29
diranno 29
influenzare 29
classico 29
pronta 29
precisi 29
attaccato 29
ziamo 29
riprese 29
zzati 29
condividono 29
navigare 29
wireless 29
assumer@@ 29
estratto 29
seme 29
causare 29
contenti 29
avvenuto 29
arancione 29
scel@@ 29
Berlino 29
Amo 29
nemici 29
cartone 29
proiett@@ 29
sindrome 29
religiose 29
predire 29
espon@@ 29
sana 29
teremo 29
istituto 29
sequenze 29
andole 29
asteroide 29
terre 29
esalt@@ 29
orizz@@ 29
chiedersi 29
seguono 29
romantico 29
rese 29
volont@@ 29
cubo 29
include 29
mela 29
ilità 29
introd@@ 29
ringrazi@@ 29
sesto 29
ettiva 29
sensibili 29
comportano 29
arma 29
pollici 29
confon@@ 29
Egli 29
gesso 29
Pertanto 29
torta 29
galleggi@@ 29
femmina 29
trasferire 29
zampa 29
regista 29
lievito 29
libellule 29
masch@@ 28
Farm 28
betra@@ 28
ös@@ 28
rett@@ 28
entsetz@@ 28
betreffen 28
gesund@@ 28
ausprobieren 28
einführen 28
redete 28
falls@@ 28
profit@@ 28
einig 28
tätig 28
Wird 28
kaputt 28
ust@@ 28
Jugend 28
besserer 28
Bush@@ 28
Zeitspanne 28
Dü@@ 28
Sprung 28
beeindruc@@ 28
Steuer@@ 28
She@@ 28
Shi@@ 28
coole 28
Worüber 28
Sinn@@ 28
wegs 28
Ern@@ 28
Designern 28
aussah 28
Bett@@ 28
bedenken 28
Einblick 28
vorhersagen 28
ordnen 28
theoret@@ 28
X-@@ 28
fürchten 28
wichtiges 28
abgeschlossen 28
Trotz 28
Knie 28
ür 28
ischerweise 28
Reagan 28
mm 28
eng@@ 28
winzi@@ 28
Up@@ 28
cci@@ 28
genau@@ 28
Journalisten 28
empf@@ 28
Büro@@ 28
Austausch 28
fertigen 28
banale 28
änder@@ 28
Seg@@ 28
gesteuert 28
gkeits@@ 28
Geben 28
Wär@@ 28
dbar 28
'8@@ 28
92 28
vielerlei 28
Jung@@ 28
bild@@ 28
Konzentration 28
diesmal 28
Gestalt 28
erwachsen@@ 28
Nest 28
trock@@ 28
Wüsten@@ 28
beten 28
Shoots 28
mine 28
entschlossen 28
aktiver 28
fördert 28
dire@@ 28
pel 28
Eli@@ 28
mäßig 28
hm 28
käme 28
beginne 28
Archit@@ 28
Mode 28
schließend 28
romantische 28
Lieder 28
Begeisterung 28
Kluft 28
spezifische 28
Schriftsteller 28
fig 28
begehen 28
stall@@ 28
Proteine 28
verhindert 28
begriffen 28
inzi@@ 28
gewaltige 28
erneut 28
Elektronen 28
pfte 28
acken 28
Bohr@@ 28
ands 28
nette 28
tile 28
Jap@@ 28
van 28
Sech@@ 28
Haar 28
belieb@@ 28
Schätzung 28
ausgedrückt 28
üche 28
verlangt 28
Grey 28
eckt 28
Univers@@ 28
äufe 28
öser 28
konsumieren 28
Schreiben 28
lasen 28
Pad@@ 28
Kä@@ 28
tic 28
deutet 28
Ausgabe 28
außer@@ 28
Raumes 28
nol@@ 28
Harris 28
atz@@ 28
Rad@@ 28
öse 28
tens 28
produkte 28
erem 28
technologie 28
Musi@@ 28
anisch 28
ie-@@ 28
Kind@@ 28
egr@@ 28
setz@@ 28
Denkens 28
biolog@@ 28
opol@@ 28
gelben 28
Neue 28
Nag@@ 28
dien 28
krimin@@ 28
här@@ 28
interne 28
Wall 28
Sterb@@ 28
Balken 28
sitz 28
geeignet 28
angeb@@ 28
umzu@@ 28
yst@@ 28
dium 28
Staub 28
artigen 28
Bre@@ 28
chtigkeit 28
ministr@@ 28
haber 28
dad 28
Böse 28
Stammes@@ 28
tanz@@ 28
Village 28
ängen 28
fällig 28
Journalist 28
2030 28
Toilette 28
Fliegen 28
Lebensqualität 28
tap@@ 28
legit@@ 28
Red 28
Kannst 28
Rate 28
line@@ 28
flach 28
zusammenge@@ 28
Teilnehmer 28
zy@@ 28
Auflösung 28
Blase 28
technologische 28
Schle@@ 28
logisch 28
Jedoch 28
aufstehen 28
sinken 28
vertr@@ 28
Fallschir@@ 28
impl@@ 28
ocks 28
metall@@ 28
Kranken@@ 28
tives 28
begren@@ 28
Ernähr@@ 28
Syn@@ 28
position 28
mel 28
Maßnahmen 28
ardi@@ 28
Neil 28
Computer-@@ 28
ey@@ 28
unwahrscheinlich 28
angebracht 28
dan 28
Riverside 28
ächer 28
Investoren 28
motiviert 28
Plätze 28
bewegungen 28
ßer 28
mitteilen 28
massive 28
15.000 28
medizin@@ 28
Gesichts@@ 28
Pace 28
1974 28
Impf@@ 28
time 28
GPHIN 28
Play@@ 28
täu@@ 28
Sno@@ 28
Rom 28
Hilfsmittel 28
Tropfen 28
gespannt 28
ford 28
ail@@ 28
Anderen 28
model@@ 28
bislang 28
gesünder 28
feste 28
posi@@ 28
ächte 28
Walter 28
erzählten 28
nic@@ 28
raft 28
1993 28
62 28
warst 28
schil@@ 28
Wort@@ 28
Comedy 28
Grönland 28
Netze 28
Kindersterblichkeit 28
domest@@ 28
ement 28
Bell@@ 28
160 28
tation 28
insi@@ 28
Natalie 28
Mich@@ 28
unge 28
Erziehung 28
teilnehmen 28
Sun@@ 28
SA 28
Nigeri@@ 28
Ladung 28
quellen 28
pret@@ 28
Nov@@ 28
detail@@ 28
Sammlung 28
einbringen 28
pflan@@ 28
corpor@@ 28
kombiniert 28
umi 28
chetti 28
car 28
Bienen@@ 28
Hadron 28
Meeresboden 28
ines@@ 28
Khmer 28
Susie 28
Mister 28
R.S. 28
opia 28
figure 28
plas@@ 28
arrest@@ 28
aeroporto 28
pulire 28
diapositive 28
facciate 28
pollice 28
uniti 28
nanot@@ 28
propon@@ 28
rurale 28
preoccup@@ 28
cotone 28
Anzi 28
facend@@ 28
complet@@ 28
dozzina 28
endoci 28
razzo 28
provengono 28
cercate 28
farcela 28
tentando 28
estetica 28
colp@@ 28
indic@@ 28
scoppi@@ 28
microbi 28
sorpreso 28
condividiamo 28
diseg@@ 28
scopi 28
segret@@ 28
aggiungiamo 28
scherzo 28
autunno 28
bottone 28
uscendo 28
alimentazione 28
ferita 28
riunioni 28
offri@@ 28
Visto 28
sedersi 28
catalog@@ 28
tranquillo 28
renda 28
esemplare 28
plic@@ 28
riuscir@@ 28
straordinariamente 28
tela 28
occa 28
adatto 28
ogn@@ 28
cacciatori 28
moll@@ 28
stimolante 28
orribili 28
lasciando 28
evidenza 28
inevitabilmente 28
veg@@ 28
crei 28
perdite 28
Spagna 28
specifica 28
alba 28
coppie 28
incorpor@@ 28
ualmente 28
cioccolato 28
oratori 28
approssi@@ 28
accelerare 28
poli 28
Essere 28
bimbo 28
peggior@@ 28
panino 28
formaggio 28
moneta 28
avanzata 28
rana 28
vederla 28
bellissime 28
videocamera 28
sciogli@@ 28
copiare 28
strapp@@ 28
renderla 28
organizzata 28
emotiva 28
oglie 28
sedi@@ 28
ridicolo 28
funzionerà 28
canti 28
invenzioni 28
agente 28
aspettano 28
entazione 28
torre 28
vieni 28
distanti 28
erci 28
divisione 28
vengo 28
navi 28
avvocati 28
sot@@ 28
contrasto 28
Turchia 28
succedono 28
venduti 28
attraversa 28
famosi 28
trattenere 28
adegu@@ 28
aspettative 28
Rim@@ 28
manutenzione 28
salita 28
paracadute 28
impegnati 28
soffitto 28
finiscono 28
opzione 28
affermare 28
zioso 28
chili 28
agricoltori 28
proporre 28
colpire 28
carsi 28
sostenibili 28
infezione 28
vederli 28
ricicl@@ 28
ritratto 28
inserito 28
ficamente 28
precedenza 28
sospetto 28
osserva 28
diano 28
implic@@ 28
incertezza 28
entusiasti 28
aggiunta 28
alleg@@ 28
marino 28
accessibili 28
reazioni 28
allenamento 28
esista 28
intitola 28
predatore 28
frammento 28
colonna 28
professionale 28
imprenditor@@ 28
sterline 28
mele 28
Einzelne 27
Kell@@ 27
Jan@@ 27
effizi@@ 27
klicken 27
Lehren 27
dlichen 27
Mein@@ 27
sauber 27
durchaus 27
fachen 27
aufhin 27
koh@@ 27
umgesetzt 27
mitgebracht 27
Notwendigkeit 27
itionen 27
Rechten 27
1500 27
einigt 27
geld 27
üssen 27
istisch 27
hn@@ 27
zutiefst 27
erstens 27
Wohltä@@ 27
rang 27
1982 27
sicheren 27
kunst 27
wacht 27
onischen 27
blicher 27
schuldig 27
Wollen 27
halbes 27
Kram 27
einziger 27
Diesen 27
ogene 27
Säugetiere 27
erhielten 27
fehler@@ 27
aufregen@@ 27
org@@ 27
Sowjetunion 27
eingestellt 27
Wasserstoff@@ 27
verboten 27
tes@@ 27
ückt 27
iron@@ 27
Privileg 27
lauter 27
jähr@@ 27
de-@@ 27
Assist@@ 27
Bildschir@@ 27
Pilot 27
wachsenden 27
grenz@@ 27
regeln 27
hl@@ 27
stel@@ 27
erfordert 27
Fri@@ 27
außergewöhnlichen 27
Pfer@@ 27
Dichte 27
Gri@@ 27
völ@@ 27
ältere 27
durchlaufen 27
ogramm 27
ecker 27
Batterien 27
Glühbirne 27
Dau@@ 27
Brilliant 27
lohnt 27
jedenfalls 27
Weibchen 27
schär@@ 27
stol@@ 27
einschließlich 27
antwortet 27
siehst 27
Metall 27
krebs 27
Zone 27
Vier@@ 27
verlor 27
ahlen 27
Muskel@@ 27
Schnell@@ 27
tatsächlichen 27
ypen 27
verletzen 27
Zurück 27
führe 27
Hilf@@ 27
gelaufen 27
yd 27
verfügen 27
ppt 27
denkst 27
rut@@ 27
Bindung 27
festen 27
Vereinten 27
Traditionen 27
komplizier@@ 27
etab@@ 27
wahrscheinlicher 27
press@@ 27
oberfläche 27
Interessantes 27
aden@@ 27
Dem 27
Glücklicherweise 27
til@@ 27
Fund@@ 27
Mars@@ 27
allgemeine 27
zuletzt 27
Nicht-@@ 27
ativer 27
alls 27
verraten 27
Rezept 27
Univer@@ 27
Psychologen 27
revolution@@ 27
125 27
Wissenschafts@@ 27
Argent@@ 27
Society 27
lar@@ 27
Quad@@ 27
ih@@ 27
klü@@ 27
multi 27
Farmer 27
Gro@@ 27
teilung 27
Abu 27
Straf@@ 27
integri@@ 27
tauschen 27
individuelle 27
gerissen 27
mathematische 27
werken 27
Punkten 27
Talent 27
Oran@@ 27
Gott@@ 27
interfer@@ 27
verrückte 27
Höhlen 27
Neugier 27
Wachstums@@ 27
sonder@@ 27
brand@@ 27
fere 27
integriert 27
Seth 27
Won@@ 27
risk@@ 27
durchschnittlich 27
Gang@@ 27
finanziellen 27
versetzen 27
yo@@ 27
verurteilt 27
angewandt 27
wuchsen 27
interessanterweise 27
krieg 27
beeindruckend 27
hierbei 27
kleinsten 27
regist@@ 27
Versicher@@ 27
campus 27
Korea 27
Levi@@ 27
äum@@ 27
umsetzen 27
stock 27
kooper@@ 27
überqueren 27
Feuerwehr@@ 27
Nachbar@@ 27
blät@@ 27
ash 27
bilität 27
geograf@@ 27
landete 27
entieren 27
yer 27
verd@@ 27
auftreten 27
‘ 27
Stahl@@ 27
straße 27
Multi@@ 27
onni@@ 27
jü@@ 27
ammen 27
ärer 27
Magnet@@ 27
ison 27
Zah@@ 27
Män@@ 27
inger@@ 27
Mutter@@ 27
Kambodscha 27
durchzuführen 27
schild 27
beschei@@ 27
Asteroiden 27
zerstör@@ 27
Royal 27
aussterben 27
pressi@@ 27
Klavier 27
eurer 27
Deine 27
Sonder@@ 27
Merk@@ 27
gesellschaftlichen 27
alem 27
Yves 27
code 27
Gewinner 27
uns@@ 27
Visualisierung 27
glücklichen 27
impor@@ 27
zum@@ 27
140 27
Treibstoff 27
Treib@@ 27
Beide 27
staatlichen 27
ziehung 27
eman 27
lokal 27
sames 27
Eisen@@ 27
Bangladesch 27
Nordamerika 27
TEDster 27
Stell@@ 27
FDA 27
ABC 27
zentren 27
150.000 27
H5N1 27
schung 27
dis 27
Chol@@ 27
alist 27
Konflikte 27
Freizeit 27
Cop@@ 27
flus@@ 27
spot 27
ausser@@ 27
itive 27
zoomen 27
onare 27
Wahlen 27
ander 27
ys@@ 27
Materi@@ 27
klär@@ 27
Ägypten 27
forscher 27
Dolby 27
Net@@ 27
Reed 27
NI@@ 27
Pingu@@ 27
gh 27
Trom@@ 27
eau 27
BIP 27
läs@@ 27
Haltung 27
Strahlung 27
Fotografen 27
scherz@@ 27
Sw@@ 27
Pink 27
immt 27
stimmung 27
glori@@ 27
+ 27
frontale 27
ado@@ 27
dien@@ 27
sozi@@ 27
Schwein@@ 27
Meeresspiegel 27
Hemisphäre 27
Erk@@ 27
Mech@@ 27
Liber@@ 27
gola 27
Rap@@ 27
Zimbabwe 27
anch@@ 27
stes@@ 27
E.@@ 27
110 27
Europ@@ 27
Applaus 27
materie 27
Re 27
vert@@ 27
PR 27
oco 27
geo@@ 27
fili@@ 27
Mall 27
Telescope 27
andi 27
ingeg@@ 27
Christopher 27
Mili@@ 27
Myzel 27
liberale 27
erectus 27
display 27
Isaac 27
Hyun 27
wale 27
isma 27
pell@@ 27
vibr@@ 27
Teig 27
assa 27
merit@@ 27
rata 27
nai 27
diagnost@@ 27
rib@@ 27
attac@@ 27
resi@@ 27
canc@@ 27
TD 27
Bianca 27
correnti 27
profitti 27
circol@@ 27
oio 27
nient' 27
Altre 27
scioc@@ 27
tato 27
assoluta 27
significativa 27
Praticamente 27
ugualmente 27
contro@@ 27
dario 27
finanziato 27
ispirare 27
sperare 27
Notate 27
troveremo 27
pianific@@ 27
tensione 27
riproduzione 27
infett@@ 27
polso 27
inquin@@ 27
lasciati 27
metterla 27
ateci 27
darmi 27
ruote 27
iato 27
raccogli@@ 27
cromosoma 27
atezza 27
ulari 27
ossido 27
versioni 27
poteri 27
implica 27
volesse 27
rispondo 27
sporco 27
contribuito 27
proteg@@ 27
Consiglio 27
produttivo 27
portarvi 27
conosceva 27
watt 27
prostata 27
sofist@@ 27
inqu@@ 27
attrezzatura 27
arrivarci 27
trap@@ 27
respir@@ 27
speranze 27
portava 27
interessata 27
guardavo 27
circolo 27
dette 27
denze 27
brava 27
farti 27
tendenze 27
Tutta 27
passar@@ 27
ottimi 27
muovendo 27
ricetta 27
Dissero 27
stretta 27
biologiche 27
incremento 27
sottolineare 27
cifra 27
giapponesi 27
analizz@@ 27
etichetta 27
blogger 27
tracciare 27
circolare 27
spiegazioni 27
istici 27
elefanti 27
nascosti 27
astronomia 27
comb@@ 27
portarli 27
vorrebbero 27
equazioni 27
succeda 27
condivisione 27
finta 27
istin@@ 27
Progetto 27
getti 27
tantissimo 27
essenza 27
accio 27
leggero 27
stasera 27
conquist@@ 27
negativi 27
letter@@ 27
derle 27
costosa 27
fascia 27
endosi 27
efficacia 27
Lì 27
rimar@@ 27
zionato 27
corte 27
cartell@@ 27
stupidi 27
cercherò 27
ricav@@ 27
concentrarsi 27
Torniamo 27
Dico 27
insegnano 27
convinti 27
í 27
rurali 27
indoss@@ 27
vitali 27
riconosci@@ 27
spina 27
dorsale 27
moltissime 27
orale 27
partito 27
alline@@ 27
genze 27
molecolari 27
cliniche 27
alzate 27
eccolo 27
qualific@@ 27
categorie 27
predatori 27
disciplina 27
conservatori 27
aliment@@ 27
orizzonte 27
percepire 27
prover@@ 27
episodio 27
smesso 27
molla 27
aspettiamo 27
brill@@ 27
danz@@ 27
Giorno 27
nascosta 27
saggi@@ 27
funzionale 27
emergenti 27
Talebani 27
zionalmente 27
cino 27
celeb@@ 27
Provate 27
studia 27
dimenti@@ 27
posteriore 27
affascinato 27
connett@@ 27
distrutto 27
tossic@@ 27
rico@@ 27
Artico 27
avermi 27
migliaio 27
elettromagnet@@ 27
palle 27
provo 27
battuto 27
musulmani 27
diventeranno 27
tett@@ 27
issi 27
piegare 27
Giove 27
autonomia 27
giocato 27
dif@@ 27
scambi 27
formula 27
urale 27
kette 26
dent 26
gedruc@@ 26
krise 26
Diejenigen 26
schulen 26
zenden 26
liegenden 26
schock@@ 26
Nähr@@ 26
Mani@@ 26
Brau@@ 26
gesp@@ 26
Vermut@@ 26
Meinungen 26
entscheidende 26
gestell@@ 26
wollt 26
bedeutsam 26
UN 26
tigkeits@@ 26
alien 26
entwick@@ 26
Besonders 26
bildeten 26
UV 26
hingegen 26
süchtig 26
Hier@@ 26
Künstlern 26
gestohlen 26
lor@@ 26
gegenüber@@ 26
redu@@ 26
ograph@@ 26
Probe 26
künstlich 26
kleineren 26
Anstrengungen 26
aturen 26
auswählen 26
port 26
Haust@@ 26
esam@@ 26
rollen 26
drucken 26
Pix@@ 26
schät@@ 26
Gor@@ 26
akte 26
Will@@ 26
Halt 26
verwendeten 26
Ziel@@ 26
Schlange 26
chem 26
Stock 26
spür@@ 26
abends 26
enge 26
fs@@ 26
verbesser@@ 26
aks 26
Zentren 26
motor@@ 26
iertes 26
einzigartigen 26
anrufen 26
Nah@@ 26
gewiesen 26
Druck@@ 26
Vogelgrippe 26
Lebensmittel@@ 26
inne 26
kunft 26
begrü@@ 26
Bewegungs@@ 26
umsonst 26
Tren@@ 26
menschlich 26
entfernten 26
garten 26
Bio-@@ 26
klappt 26
furcht@@ 26
Rande 26
heil@@ 26
däm@@ 26
weiger@@ 26
komplexes 26
entfer@@ 26
komm 26
Verletzungen 26
kauften 26
hafter 26
Unsicherheit 26
L.A. 26
Dop@@ 26
Psy@@ 26
Versch@@ 26
Mustern 26
76 26
Allerdings 26
oton@@ 26
Empfin@@ 26
Liebling@@ 26
gemeint 26
hang 26
Sili@@ 26
ierungs@@ 26
festhalten 26
unterbrochen 26
Sechs 26
japanischen 26
konserv@@ 26
anern 26
Wald@@ 26
Blin@@ 26
White 26
Rand@@ 26
Wünsche 26
Milch@@ 26
Eti@@ 26
verläuft 26
Zeichnung 26
Service 26
sichti@@ 26
fotografieren 26
Top 26
Zwischen@@ 26
Erzählung 26
vergewaltigt 26
ähn@@ 26
lett@@ 26
Amazon 26
Differ@@ 26
Molek@@ 26
Konsum 26
Watson 26
unsichtbaren 26
eventuell 26
betrachte 26
gemis@@ 26
laufe 26
CP 26
konzentrierte 26
Coca 26
schau 26
anisches 26
Verkauf 26
lierten 26
ids 26
osse 26
Heil@@ 26
Real@@ 26
gebung 26
nisses 26
schnellen 26
Olym@@ 26
Hülle 26
dimensionalen 26
Transparenz 26
Agen@@ 26
Hütte 26
Berlin 26
Waffe 26
Maß 26
Scha@@ 26
erium 26
Drit@@ 26
Schwei@@ 26
Reser@@ 26
2-@@ 26
fün@@ 26
Mitgefühls 26
kop@@ 26
Sonn@@ 26
Held 26
ket@@ 26
Pau@@ 26
Hö@@ 26
Wis@@ 26
erb@@ 26
Lat@@ 26
acken@@ 26
Mons@@ 26
ingen@@ 26
radikal 26
Neutr@@ 26
vermuten 26
richtungen 26
niemandem 26
Wechsel 26
Sag@@ 26
Verbrau@@ 26
Fett@@ 26
gefr@@ 26
ther@@ 26
voran 26
vernünf@@ 26
Bestandteil 26
pert 26
Hersteller 26
Nam@@ 26
aß 26
Konserv@@ 26
Ameisen@@ 26
Taschen@@ 26
sell 26
unabhängige 26
Hundert@@ 26
Power@@ 26
nosti@@ 26
großem 26
Lichter 26
Experimenten 26
resulti@@ 26
quat@@ 26
atem@@ 26
3D-@@ 26
Harmonie 26
gefolgt 26
ventionen 26
sprechend 26
Motoren 26
ulen 26
Stahl 26
Liefer@@ 26
kleinste 26
sing 26
implem@@ 26
Keiner 26
Reserv@@ 26
restlichen 26
Weiter@@ 26
My 26
Schweine 26
Immun@@ 26
omin@@ 26
retro@@ 26
extr@@ 26
Fall@@ 26
ams 26
meln 26
Jeden 26
Ressource 26
Jeep 26
vergrößern 26
nit@@ 26
Kopf-Zahl-@@ 26
73 26
setze 26
mond 26
ats 26
trin@@ 26
Felder 26
beschränkt 26
Haar@@ 26
kommst 26
geringer 26
Eduardo 26
keit@@ 26
simp@@ 26
ektivität 26
3,5 26
Ries@@ 26
tend 26
mers 26
Jer@@ 26
Wetter@@ 26
Kalorien 26
Mount 26
ulli 26
architektonische 26
Ig@@ 26
Fiktion 26
Abb@@ 26
usti@@ 26
Nährstoffe 26
jahr@@ 26
Master 26
fan 26
Voraussagen 26
Amsterdam 26
Arkansas 26
Sonde 26
uo 26
5-@@ 26
Streifen 26
Hühnchen 26
llare 26
Ran@@ 26
quo 26
Joh@@ 26
arre 26
Philanthropie 26
Lebenslied 26
Robotern 26
Pier@@ 26
fron@@ 26
reagiert 26
eis@@ 26
Juan 26
Gleichungen 26
SE 26
identi@@ 26
parall@@ 26
á 26
spon@@ 26
fragile 26
Bösen 26
Dimitri 26
amma 26
grov@@ 26
dipl@@ 26
Ind@@ 26
ign@@ 26
ogo 26
pia 26
emi@@ 26
Hefe 26
Probanden 26
fav@@ 26
Maitreya 26
acci 26
Browne 26
Mathematica 26
avate 26
Sandel 26
mapp@@ 26
Mett@@ 26
arto 26
raccontando 26
profitto 26
pagano 26
credi@@ 26
progettisti 26
Fate 26
connesse 26
Parlando 26
nutrire 26
opport@@ 26
competere 26
pronte 26
avanguardia 26
consente 26
Volete 26
occupano 26
abbandonato 26
ebbi 26
finchè 26
ispirati 26
Blu 26
riusciremo 26
sincer@@ 26
distante 26
anticipo 26
elevato 26
maggiormente 26
pubblicare 26
primaria 26
vaso 26
unirsi 26
testi 26
costano 26
parleremo 26
buroc@@ 26
tornata 26
riunione 26
attaccare 26
meravigli@@ 26
conci@@ 26
profilo 26
determinare 26
dici@@ 26
professori 26
midollo 26
bire 26
chiedermi 26
piccol@@ 26
icona 26
catene 26
acco 26
Sapevo 26
orgoglioso 26
assume 26
accoppi@@ 26
entrando 26
procedere 26
matrimoni 26
apprendere 26
giocando 26
separazione 26
basate 26
Sempre 26
parallelo 26
benché 26
Osserv@@ 26
supermercato 26
formul@@ 26
assol@@ 26
conf@@ 26
apprezzare 26
autent@@ 26
Tipo 26
stupida 26
miracolo 26
dovresti 26
soffri@@ 26
dovrà 26
focalizz@@ 26
ider@@ 26
ripreso 26
mucche 26
significava 26
teranno 26
volumi 26
artistica 26
crimini 26
assas@@ 26
vantaggi@@ 26
disturbo 26
ingere 26
siede 26
collettivo 26
Copenhagen 26
agenzia 26
Purtroppo 26
portarci 26
distribuire 26
anziano 26
pazienza 26
ragazzina 26
sacri@@ 26
ivo 26
esaminare 26
usciti 26
sviluppate 26
piatta 26
completato 26
comprendiamo 26
aspettavo 26
pericolose 26
sprec@@ 26
attraversando 26
antenne 26
deboli 26
sperimentale 26
palu@@ 26
interruttore 26
cosmo 26
persegu@@ 26
categoria 26
esauri@@ 26
agiscono 26
tecnologici 26
vità 26
colazione 26
sembravano 26
aiutando 26
partecipanti 26
tono 26
Legge 26
elettro@@ 26
confusione 26
ammontare 26
mischi@@ 26
sapendo 26
fidanz@@ 26
dovrete 26
aggra@@ 26
usc@@ 26
Narratore 26
giganti 26
bestiame 26
cibi 26
riconosc@@ 26
indiana 26
progredire 26
iare 26
custode 26
lotteria 26
rivelato 26
scorre 26
male@@ 26
documentario 26
passaggi 26
chiedeva 26
sottomarino 26
Voleva 26
olari 26
coralline 26
pila 26
piantare 26
candela 26
s' 26
vorresti 26
razionali 26
peli 26
Bè 26
oche 26
Hybri@@ 25
amen 25
Erderwärmung 25
rus 25
Flughafen 25
schel@@ 25
nachrichten 25
kurzfri@@ 25
Ingenieur@@ 25
einfachste 25
sache 25
einfallen 25
stärk@@ 25
rigen 25
Biomasse 25
Uni 25
abges@@ 25
Gesi@@ 25
Annahmen 25
unternehmer@@ 25
ums@@ 25
riffen 25
Mem 25
teils 25
theit 25
schie@@ 25
wolle 25
dste 25
Rennen 25
effizienter 25
halten@@ 25
diskutiert 25
Ärger 25
Anzug 25
affen 25
schickten 25
leit@@ 25
wart@@ 25
baum 25
toler@@ 25
aufregende 25
erlaubte 25
kno@@ 25
selt 25
nutzten 25
empfin@@ 25
Ethanol 25
Größen@@ 25
Idi@@ 25
klass@@ 25
Word 25
erkenn@@ 25
Herbst 25
Weiter 25
Wohin 25
deuten 25
kehrte 25
Kni@@ 25
geglaubt 25
Sicher 25
stellungs@@ 25
Unterhalt@@ 25
motivieren 25
unmittel@@ 25
kosten@@ 25
erstaunt 25
Betrachtung 25
Allgemeinen 25
äume 25
chtigen 25
verbraucht 25
spannend 25
chtungen 25
U-Bahn 25
25.000 25
Del 25
Monte 25
zuhalten 25
schir@@ 25
reckt 25
hü@@ 25
glas 25
dü@@ 25
kinder 25
bern 25
müsst 25
Glei@@ 25
gelang@@ 25
Pur@@ 25
derte 25
kämen 25
ausbreiten 25
lis 25
kasten 25
treu 25
Hast 25
erra 25
Standards 25
verarbeiten 25
schwachen 25
stands 25
wort 25
40@@ 25
Amer@@ 25
derten 25
anzuwenden 25
hob 25
AS@@ 25
Dasselbe 25
wachsende 25
angetrieben 25
verhält 25
ution 25
Hauses 25
Stück@@ 25
Wars 25
Gould 25
gewaltigen 25
Urknall 25
schieden 25
realisieren 25
Geträn@@ 25
analysiert 25
Acht@@ 25
toten 25
Sorte 25
ücke 25
hrt 25
Blogger 25
west 25
könntest 25
atsch 25
direkte 25
April 25
bestimmtes 25
Elefanten 25
yc@@ 25
verstecken 25
akti@@ 25
Soldat 25
warf 25
Polar@@ 25
kopieren 25
Distanz 25
reißen 25
-D@@ 25
Repräsent@@ 25
Frem@@ 25
draht@@ 25
Möbel 25
lächerlich 25
250.000 25
Lim@@ 25
bezah@@ 25
geschnitten 25
Caf@@ 25
Essen@@ 25
Sondern 25
Ring 25
uliert 25
chef 25
Innenstadt 25
Af@@ 25
Eigent@@ 25
anzufangen 25
möglichkeit 25
gesteckt 25
Oft 25
gelbe 25
Schaut 25
betreten 25
eingebaut 25
= 25
Produktions@@ 25
identifiziert 25
Mich 25
nutzte 25
beteiligen 25
konstru@@ 25
wahrgenommen 25
person 25
Jackson 25
sters 25
Rich@@ 25
springt 25
abgesch@@ 25
August 25
inien 25
spolitik 25
gewinn@@ 25
stoß 25
Ani@@ 25
1/@@ 25
ops 25
äss@@ 25
Koordin@@ 25
förmige 25
Stränge 25
amo@@ 25
Marshall 25
kreb@@ 25
itäre 25
illeg@@ 25
Toil@@ 25
haufen 25
europäischen 25
hef@@ 25
gas@@ 25
Massachusetts 25
beendet 25
Werkzeugen 25
Vakuum 25
Vorhersagen 25
Chips 25
kürz@@ 25
hir@@ 25
Muster@@ 25
ungs 25
Prioritäten 25
eil@@ 25
pfel 25
herrscht 25
ergän@@ 25
hervorrag@@ 25
geleistet 25
bedroh@@ 25
unmittelbar 25
ffs 25
äger 25
gross 25
52 25
wünsche 25
ungst@@ 25
Nik@@ 25
Güter 25
schliessen 25
zend 25
rt 25
beu@@ 25
Selb@@ 25
skal@@ 25
einzigartige 25
Sinclair 25
TA 25
verbrauch 25
haupt@@ 25
herausgestellt 25
elim@@ 25
Benzin@@ 25
lic@@ 25
Parks 25
Kommun@@ 25
sieben@@ 25
chtern 25
Alabama 25
Mississippi 25
setzung 25
CNN 25
12.000 25
ungewöhnlich 25
eigentlichen 25
Schwein 25
Rot 25
libr@@ 25
Gripp@@ 25
Überzeugung 25
Investition 25
geist 25
Geruch 25
etter 25
Option 25
basieren 25
Sag 25
K-@@ 25
Esther 25
wein@@ 25
Künste 25
wu@@ 25
Lebensunterhalt 25
½ 25
Alltag 25
Fit@@ 25
Direktor 25
biom@@ 25
schätzt 25
Kanzi 25
benannt 25
angenehme 25
cas 25
warte 25
Wahr@@ 25
Feuer@@ 25
erfasst 25
Steinen 25
Pflege 25
Associ@@ 25
gab@@ 25
Block 25
erzäh@@ 25
Mikroskop 25
anga 25
Südpol 25
Unterricht 25
Bestandteile 25
Überzeugungen 25
gehst 25
Lor@@ 25
verblüffend 25
lle 25
CO@@ 25
obby 25
gestoßen 25
Lärm 25
anreg@@ 25
Brand 25
Sel@@ 25
Speicher 25
assozi@@ 25
schwimmt 25
C. 25
mando 25
Zap@@ 25
Carb@@ 25
mur@@ 25
ect 25
empfindlich 25
diplom@@ 25
Sedi@@ 25
Kondome 25
Kamel 25
Tunnel 25
mikroskop@@ 25
Capit@@ 25
Journal 25
fst 25
Ronald 25
inger 25
zusät@@ 25
1918 25
park 25
Schriftstell@@ 25
crat@@ 25
Chirurgen 25
Kleb@@ 25
Sky@@ 25
Oprah 25
infl@@ 25
string@@ 25
Mongol@@ 25
irne 25
Flickr 25
Cha@@ 25
Len 25
insul@@ 25
Diät 25
Interviewer 25
Skycar 25
Moskitos 25
dog@@ 25
temp@@ 25
progres@@ 25
resist@@ 25
allu@@ 25
dev@@ 25
ive 25
denti@@ 25
lare 25
garant@@ 25
traff@@ 25
rane 25
como@@ 25
abbass@@ 25
annunciato 25
metti@@ 25
misure 25
investito 25
Divent@@ 25
ografica 25
commerci@@ 25
partecipazione 25
alquanto 25
tirato 25
guadagni 25
considerando 25
critici 25
concor@@ 25
essenziali 25
accordi 25
immaginato 25
dottorato 25
Stai 25
esplodere 25
favor@@ 25
presupposto 25
considerate 25
analogia 25
itivo 25
tenuti 25
intenso 25
graff@@ 25
biomassa 25
chiusi 25
inclusi 25
espandere 25
pazzo 25
allarme 25
immenso 25
posse@@ 25
chiacchier@@ 25
barra 25
scrivo 25
sottos@@ 25
impalcatura 25
credi 25
autostrada 25
spendono 25
entri 25
dovesse 25
vent' 25
affid@@ 25
cardi@@ 25
conveniente 25
nascono 25
usarla 25
leggera 25
estingu@@ 25
fondare 25
rano 25
soprav@@ 25
riassumere 25
colare 25
esprime 25
celebrità 25
disagio 25
spagn@@ 25
stando 25
baia 25
tappeto 25
cerò 25
poesie 25
guidando 25
preoccupata 25
crist@@ 25
menzion@@ 25
asta 25
guarigione 25
attuali 25
indicano 25
traiettoria 25
afferr@@ 25
monitorare 25
rivelazione 25
salsa 25
visibili 25
gerarchia 25
senz' 25
influenzato 25
esplic@@ 25
seri 25
avvocato 25
sedute 25
esecuzione 25
liberamente 25
finiti 25
tima 25
filoso@@ 25
contemporan@@ 25
stran@@ 25
sviluppata 25
televisivo 25
attirare 25
brev@@ 25
fresco 25
gerà 25
progettando 25
gare 25
produc@@ 25
malati 25
fatemi 25
trasparenza 25
tornai 25
pistola 25
ambigu@@ 25
onesto 25
combatt@@ 25
andranno 25
discut@@ 25
proporzioni 25
Fantastico 25
tempio 25
davo 25
simboli 25
lavoratori 25
pallone 25
trovava 25
detevi 25
sentiva 25
legami 25
bisog@@ 25
organizzati 25
comunicano 25
Dovrebbe 25
sorprendentemente 25
mico 25
Suppon@@ 25
accumul@@ 25
lasciar 25
alieno 25
Antartide 25
femmine 25
radic@@ 25
ogia 25
attrazione 25
simbol@@ 25
Guard@@ 25
limitata 25
Diamo 25
rami@@ 25
concerto 25
protoc@@ 25
finirà 25
sensore 25
barche 25
fotografato 25
curato 25
soffre 25
schiavi 25
competenze 25
pec@@ 25
miniere 25
cominci 25
scolastico 25
cortile 25
copyright 25
Roma 25
forniscono 25
preparare 25
unire 25
Veramente 25
andremo 25
colpevole 25
esager@@ 25
artico 25
senzatetto 25
Egitto 25
imbarazzante 25
curv@@ 25
frequenze 25
volando 25
orsi 25
tempesta 25
arrampicarsi 25
colonne 25
antiche 25
fug@@ 25
precip@@ 25
merci 25
pacchetto 25
rispondono 25
apparecchio 25
pirazione 25
stunt 25
protette 25
siringa 25
katastrop@@ 24
netten 24
iet@@ 24
billige 24
Lagos 24
Atlantik 24
schief 24
durchgehen 24
negativ 24
langfristig 24
Entschei@@ 24
ohnen 24
unterhalt@@ 24
nom@@ 24
iniert 24
erzielen 24
MI@@ 24
Kohlenstoff@@ 24
Fossi@@ 24
kleb@@ 24
verbreit@@ 24
region@@ 24
Bin@@ 24
fielen 24
wohnern 24
Wissens 24
kontrolle 24
Kredit@@ 24
fehlen 24
eurem 24
Macht@@ 24
ypt@@ 24
internation@@ 24
globaler 24
elnden 24
blickt 24
schriften 24
geplant 24
Intelligen@@ 24
abgest@@ 24
ürzt 24
flug@@ 24
Internation@@ 24
lös@@ 24
Verkehrs@@ 24
unklar 24
emotionalen 24
angelo 24
Spannung 24
Ingenieuren 24
hänge 24
Path@@ 24
Genome 24
Mikroben 24
Liter 24
hom@@ 24
zusammenzu@@ 24
Überlebens@@ 24
ons@@ 24
Stille 24
brei@@ 24
glei@@ 24
Druc@@ 24
Kul@@ 24
forschen 24
brauch 24
Cu@@ 24
Trade 24
Tot@@ 24
Kas@@ 24
dringend 24
teilzunehmen 24
komische 24
zurzeit 24
übers 24
versamm@@ 24
resp@@ 24
stattfand 24
Bür@@ 24
stätten 24
überein 24
aufgeben 24
ktiv 24
our@@ 24
befestig@@ 24
hiervon 24
speichern 24
Blät@@ 24
schar@@ 24
Hän@@ 24
verzweifelt 24
anderswo 24
merkte 24
Wut 24
Enkel 24
erschienen 24
ime 24
Toronto 24
Organ 24
Lunge 24
schuss 24
gehenden 24
Genetik 24
spitze 24
berühmte 24
ankam 24
unken 24
toller 24
sagst 24
beauf@@ 24
herkommen 24
gestanden 24
kab@@ 24
MR@@ 24
Mary 24
Dichter 24
Agrar@@ 24
industriellen 24
auftritt 24
Ehe 24
bungen 24
Abschnitt 24
ähnlicher 24
Feld@@ 24
temperatur 24
strahlen 24
Heilung 24
öden 24
Hillis 24
tum 24
sieb@@ 24
jenem 24
Brille 24
oph@@ 24
Club 24
Supermarkt 24
verkauften 24
Skala 24
78 24
Ted@@ 24
seltsamen 24
Nimm 24
Geburts@@ 24
sno@@ 24
name 24
aven 24
Leser 24
1976 24
schri@@ 24
zliche 24
Mauer 24
Studien@@ 24
gemeinschaft@@ 24
Wide 24
französ@@ 24
Linse 24
Dich 24
nes 24
Lynn 24
keines 24
wirtschaft@@ 24
Phil@@ 24
spru@@ 24
Formel 24
Blasen 24
carbon@@ 24
Rein@@ 24
eitung 24
markt@@ 24
poth@@ 24
Ecken 24
ignoriert 24
keinerlei 24
Ih@@ 24
und-@@ 24
rand@@ 24
gereist 24
ats@@ 24
Früher 24
hole 24
Kapital@@ 24
schwach 24
kostenlose 24
archi@@ 24
Betracht 24
gering 24
allt 24
i-@@ 24
Besuch 24
wohn@@ 24
breiten 24
Alkohol 24
folgten 24
Para@@ 24
leh@@ 24
benötigte 24
besu@@ 24
Strat@@ 24
Kooperation 24
UN-@@ 24
Kampf@@ 24
zö@@ 24
schlicht 24
Hilfs@@ 24
Bom@@ 24
tisch 24
Bergen 24
Nepal 24
Feinde 24
utes 24
Muslime 24
faktoren 24
sträger 24
Sätze 24
Schil@@ 24
verfahren 24
Extr@@ 24
zusam@@ 24
Nutzer 24
tung 24
Bek@@ 24
Stipen@@ 24
mathematischen 24
anzunehmen 24
evolution@@ 24
Dienste 24
nano 24
behauptet 24
isierten 24
Anders 24
Tra@@ 24
Ambi@@ 24
Optimismus 24
yo 24
fotogra@@ 24
vollziehen 24
100@@ 24
vergrößert 24
simu@@ 24
wärmen 24
Klein 24
enkt 24
Alex@@ 24
gebr@@ 24
Ab 24
abol@@ 24
Fun@@ 24
Gast@@ 24
Veranstaltung 24
zugrunde 24
Zivilisationen 24
Streit 24
weichen 24
ständige 24
Roger 24
ID 24
fähigen 24
Austr@@ 24
Apfel 24
errei@@ 24
esst 24
anlagen 24
Spar@@ 24
Front 24
Tat@@ 24
prog@@ 24
Kauf@@ 24
Kohlen@@ 24
üb@@ 24
ical 24
Angelegenheiten 24
Ernährungs@@ 24
Wasch@@ 24
wahrhaftig 24
klei@@ 24
riesig 24
Spann@@ 24
anthrop@@ 24
agieren 24
xen 24
streichen 24
fasste 24
Stabilität 24
beacht@@ 24
wesentlichen 24
Out@@ 24
BBC 24
enor@@ 24
Neigung 24
Zweite 24
Rollen 24
Cat@@ 24
wunderbares 24
Clark 24
stin@@ 24
entlich 24
achtung 24
wieviele 24
chtig 24
bzw 24
religi@@ 24
Obdach@@ 24
zuzuhören 24
wo@@ 24
Food 24
Gan@@ 24
Bollywood 24
fab@@ 24
quote 24
Matrix 24
zusammengestellt 24
Dörfern 24
Treibhausgase 24
Amerik@@ 24
organisierten 24
ny 24
nord@@ 24
energi@@ 24
böse 24
Platten 24
eilt 24
Währ@@ 24
back@@ 24
probiert 24
Trocken@@ 24
riesiger 24
natürliches 24
ji@@ 24
glän@@ 24
Dou@@ 24
stattgefunden 24
büchern 24
pazi@@ 24
lott@@ 24
Effekte 24
atz 24
Tol@@ 24
deser@@ 24
pos 24
ader 24
Hör@@ 24
Klassi@@ 24
Nevada 24
Bul@@ 24
Mast@@ 24
put@@ 24
tenen 24
D.C. 24
opar@@ 24
kleben 24
deste 24
Dir@@ 24
Botswana 24
utter@@ 24
Versu@@ 24
berücksichtigt 24
Bestechung 24
woanders 24
IV 24
aka 24
Elektronik 24
deleg@@ 24
RHex 24
Neumann 24
addi@@ 24
Conserv@@ 24
Uruguay 24
Apr@@ 24
mart 24
U-Boot 24
Barbie 24
USDA 24
.C. 24
XX 24
70.000 24
rechner@@ 24
K. 24
Flow 24
Synap@@ 24
AL@@ 24
osh@@ 24
bro 24
Now 24
caram@@ 24
Rockett 24
viet@@ 24
enda 24
pigmen@@ 24
less@@ 24
Alhambra 24
aggreg@@ 24
Viv@@ 24
Corexit 24
ollo 24
Independent 24
sforz@@ 24
combustibili 24
citato 24
condurre 24
quest 24
stabi@@ 24
pressa 24
colpiti 24
cercavano 24
commento 24
mentato 24
duri 24
ricostruzione 24
eccezioni 24
addestr@@ 24
attraversato 24
sopravvissuti 24
piloti 24
volano 24
occasioni 24
rimase 24
ghi 24
intervallo 24
promessa 24
lampada 24
celle 24
sculture 24
Conosc@@ 24
Vuoi 24
cavolo 24
piene 24
calde 24
osservazioni 24
estremi 24
testimoni@@ 24
sorgente 24
recuper@@ 24
Norvegia 24
trovavano 24
indirizzo 24
troppa 24
presi@@ 24
Aspetta 24
speg@@ 24
relazion@@ 24
scad@@ 24
concepire 24
richiedono 24
sci 24
microfono 24
abitudini 24
costosi 24
liberare 24
afferma 24
soddisfazione 24
matt@@ 24
malvag@@ 24
legg@@ 24
nutrienti 24
doppia 24
permettersi 24
Ini@@ 24
interpretare 24
cherà 24
incontrai 24
strettamente 24
profondi 24
comprende 24
infelici 24
orgasmo 24
curi@@ 24
Usiamo 24
onato 24
Impar@@ 24
ritorna 24
dissol@@ 24
esisteva 24
magni@@ 24
visuale 24
ativamente 24
copie 24
perfetti 24
uscì 24
Dalla 24
gialla 24
ritro@@ 24
invecchi@@ 24
telefonata 24
distribuito 24
antemente 24
corre@@ 24
gigantesco 24
Insegn@@ 24
ottenendo 24
acca@@ 24
tv 24
preghiera 24
mediche 24
scansione 24
dovessi 24
attiamo 24
lenta 24
Passiamo 24
francamente 24
noi@@ 24
malato 24
noioso 24
degna 24
nudo 24
discussioni 24
ridotta 24
ascesa 24
ingann@@ 24
adozione 24
malapena 24
confrontare 24
regi@@ 24
raggrupp@@ 24
aggr@@ 24
aggiu@@ 24
universitari 24
applica 24
sari 24
onesti 24
filmati 24
ebre 24
cominciata 24
Pensateci 24
tesoro 24
enciclopedia 24
auda@@ 24
intervenire 24
verà 24
riempi@@ 24
sceso 24
odier@@ 24
cognitiva 24
sbagliati 24
perdendo 24
ottimismo 24
terete 24
fondatore 24
Ascolt@@ 24
Cambogia 24
informatico 24
potr@@ 24
intere 24
sviluppano 24
determinato 24
atomo 24
entiamo 24
vulcan@@ 24
carina 24
artificiali 24
sfum@@ 24
sensibilità 24
contraddizione 24
fumetto 24
conduce 24
inchiostro 24
fabbriche 24
ceremo 24
governance 24
parteci@@ 24
fotografi 24
restano 24
estrema 24
riciclaggio 24
Gente 24
elettrici 24
insolito 24
simulare 24
conclusioni 24
collo 24
rinunciare 24
contenere 24
inazione 24
scan@@ 24
stabilità 24
collegata 24
terrificante 24
zanzare 24
sentita 24
splendida 24
meritano 24
prigionieri 24
marchi 24
utensili 24
esplorato 24
lavagna 24
prigioniero 24
incendio 24
raggiungono 24
Chiesa 24
Ministro 24
ubri@@ 24
farai 24
Speriamo 24
debol@@ 24
gradualmente 24
onti 24
capitato 24
germi 24
compassionevole 24
scritti 24
tuff@@ 24
recupero 24
riforma 24
ficate 24
solido 24
protesi 24
contenitore 24
manov@@ 24
retic@@ 24
fungo 24
Corano 24
patate 24
Bambino 24
ghiacciaio 24
sinapsi 24
alimenti 24
canopea 24
rompicapi 24
wachte 23
billi@@ 23
amor@@ 23
sichere 23
Davon 23
stiges 23
stige 23
unvermei@@ 23
polit@@ 23
politik 23
Amy 23
Brand@@ 23
nende 23
itis 23
denten 23
üge 23
zün@@ 23
haus@@ 23
Durchschnitts@@ 23
WI@@ 23
Mikro-@@ 23
überdenken 23
Untersuchungen 23
bereitet 23
Engagement 23
spren@@ 23
ökonomische 23
allererst 23
funktion 23
mass@@ 23
auszuprobieren 23
inspi@@ 23
geprägt 23
us-@@ 23
dazu@@ 23
60ern 23
führer 23
amerikanischer 23
Zus@@ 23
Hierarchie 23
Chev@@ 23
Meister 23
Analogie 23
tendieren 23
Hoffentlich 23
leeren 23
Bril@@ 23
Fäden 23
Altern 23
entschl@@ 23
warm 23
Häu@@ 23
Rezep@@ 23
han@@ 23
Yor@@ 23
Leit@@ 23
Schlei@@ 23
Leiden@@ 23
tasche 23
Techniker 23
Wahlmöglichkeiten 23
klappen 23
Ord@@ 23
dus 23
leise 23
Konversation 23
Vergessen 23
Diskussionen 23
ira 23
verwirklichen 23
sicherzustellen 23
artiges 23
günstig 23
trinkt 23
Tätigkeit 23
tempor@@ 23
recherchi@@ 23
blicke 23
Schne@@ 23
Avenue 23
ebo@@ 23
normaler 23
fahrer 23
Bla@@ 23
Einrichtung 23
cen 23
sieren 23
25@@ 23
Trinkwasser 23
verringert 23
Kategorie 23
kollek@@ 23
train@@ 23
Veget@@ 23
reu@@ 23
Mitleid 23
Gesten 23
Unsinn 23
drittens 23
durchs 23
Großvater 23
kind 23
stamm@@ 23
ziel 23
verletzt 23
Linken 23
Bilbao 23
Leinwand 23
mein@@ 23
folgte 23
Clip 23
holten 23
ierungen 23
betrügen 23
schla@@ 23
H. 23
hungrig 23
Program@@ 23
anzukommen 23
edern 23
schreck@@ 23
Rasse 23
onik 23
Anpassung 23
Protein 23
Stop@@ 23
ologisch 23
öt@@ 23
äden 23
Ökosysteme 23
Jun@@ 23
ähen 23
anter 23
Oli@@ 23
tigem 23
schlage 23
den-@@ 23
sw@@ 23
Mäuse 23
projek@@ 23
beschleunigt 23
erweitert 23
erzi@@ 23
öl 23
spezifischen 23
schön@@ 23
alisierte 23
freundliche 23
überlassen 23
eigung 23
Os 23
kognitive 23
aufstellen 23
vergleicht 23
physi@@ 23
Guardian 23
Klassen@@ 23
Reb@@ 23
terte 23
Bildungssystem 23
prechen 23
Kurse 23
anzupassen 23
Imperi@@ 23
Bibliot@@ 23
Zun@@ 23
roff@@ 23
rock 23
Lov@@ 23
Vinci 23
versagt 23
digte 23
göt@@ 23
wässer@@ 23
höh@@ 23
chens 23
ysteme 23
Otto 23
geschn@@ 23
abhängt 23
zutrifft 23
Zeitschriften 23
Spezial@@ 23
Koff@@ 23
klassi@@ 23
frisch 23
Stan@@ 23
zo@@ 23
merkt 23
schichten 23
zlich 23
Gär@@ 23
Anzeichen 23
furchtbar 23
viert 23
Auff@@ 23
ebel 23
Bundes@@ 23
genaue 23
Kopenhagen 23
Bildes 23
Prototyp 23
spiegelt 23
antreiben 23
grundleg@@ 23
Konstruktion 23
Draht 23
verleihen 23
ansonsten 23
Schauspieler 23
Blau@@ 23
beraten 23
Taten 23
Anspruch 23
ip@@ 23
omosex@@ 23
Lücke 23
NG@@ 23
koordin@@ 23
Schlag 23
melden 23
CIA 23
müde 23
ämpfe 23
Motiv@@ 23
mü@@ 23
besi@@ 23
schwache 23
keni@@ 23
strah@@ 23
Plasti@@ 23
Sul@@ 23
Jimmy 23
Enzyklopädie 23
Link 23
pedi@@ 23
Andererseits 23
Pazi@@ 23
ht@@ 23
sinnvoll 23
Griff 23
verdoppeln 23
Transistoren 23
essor@@ 23
beding@@ 23
futur@@ 23
Robo@@ 23
tast@@ 23
neurale 23
Algen 23
Skelett 23
ewig 23
män@@ 23
nchen 23
Skype 23
November 23
Celsius 23
nov@@ 23
Bausteine 23
physikalischen 23
moralis@@ 23
blatt 23
Spl@@ 23
Bauer 23
Variationen 23
berechnet 23
Hirns 23
Empathie 23
Das@@ 23
Kiste 23
kop 23
schütteln 23
dram@@ 23
jedermann 23
Glücks 23
Span@@ 23
aktion 23
blasen 23
motor 23
part 23
schweren 23
Rohstoffe 23
beschleunigen 23
ossen@@ 23
60er 23
Überfluss 23
kland 23
verwandt 23
bewusstsein 23
olli 23
halfen 23
Rec@@ 23
Stau@@ 23
versorgt 23
Netzwer@@ 23
dick 23
Nachmittag 23
Fischer 23
zweiter 23
Maß@@ 23
demien 23
Arz@@ 23
1967 23
Strassen 23
Bh@@ 23
ood-@@ 23
Asi@@ 23
offensichtliche 23
krankungen 23
Zin@@ 23
Mitteln 23
kun@@ 23
Flaschen 23
umgewandelt 23
unterricht 23
discher 23
Videospi@@ 23
visuell 23
pus 23
fs 23
empi@@ 23
geheim@@ 23
Gallo 23
Wochenende 23
merce 23
ankommen 23
regener@@ 23
Bin 23
eid 23
nahen 23
politischer 23
Dist@@ 23
Angelegenheit 23
Telefone 23
Falle 23
fürchte 23
Später 23
Faszin@@ 23
Alber@@ 23
Ca@@ 23
beschä@@ 23
skraft 23
Diagnose 23
Schlagzeilen 23
Stimmt 23
Schrift 23
omateri@@ 23
R-@@ 23
ord 23
Hus@@ 23
Blair 23
verrückten 23
Papi@@ 23
elektromagnet@@ 23
robo@@ 23
Kleider 23
arischen 23
stüt@@ 23
Poesie 23
Full 23
Angriffe 23
Götter 23
ordentlich 23
opo@@ 23
Spanien 23
Sus@@ 23
Zweiten 23
M. 23
oods 23
märkte 23
onio 23
demograf@@ 23
0,000 23
Sternen@@ 23
Kandidaten 23
rek@@ 23
Kreatur 23
Fleisch@@ 23
ule 23
Black@@ 23
bandi@@ 23
BC 23
Bat@@ 23
stellige 23
schwierigen 23
mmm 23
Netzwerken 23
Liebeslied 23
81 23
CERN 23
energet@@ 23
oi@@ 23
Flö@@ 23
ira@@ 23
geh 23
paran@@ 23
dend@@ 23
gesellschaft@@ 23
Messungen 23
è@@ 23
fusi@@ 23
Tiger 23
Phantom-@@ 23
Sousa 23
Maslow 23
Hindi 23
rekt 23
Ek@@ 23
gger@@ 23
Weizen 23
Analysis 23
Oktopus 23
blu@@ 23
andar@@ 23
Sant@@ 23
Geht 23
dap@@ 23
itta 23
udi@@ 23
Zimmer@@ 23
Symph@@ 23
ettere 23
chinesisches 23
Orig@@ 23
scanner 23
diag@@ 23
scura 23
spun@@ 23
morbi@@ 23
DG 23
m. 23
Harlem 23
Furby 23
Koralle 23
quantit@@ 23
edu@@ 23
pasta 23
Rauschen 23
O.@@ 23
VC 23
uma 23
Liberia 23
ferm@@ 23
Splashy 23
mant@@ 23
stiche 23
disco@@ 23
chini 23
Galvao 23
cappello 23
successi 23
abitudine 23
cambi 23
occupar@@ 23
proiezione 23
politicamente 23
utare 23
lavorarci 23
radice 23
globo 23
Dipende 23
itazione 23
Comin@@ 23
atterrare 23
annuncio 23
creduto 23
riviste 23
sapevate 23
argilla 23
itiva 23
Volevamo 23
stacc@@ 23
arrabbi@@ 23
finanziamento 23
hardware 23
dipartimento 23
cromosomi 23
metabol@@ 23
ciata 23
ferite 23
veranno 23
funzionalità 23
Semplic@@ 23
attenti 23
emotivo 23
cosicché 23
Persino 23
ristruttur@@ 23
Dovevamo 23
osservatore 23
tenendo 23
porsi 23
itica 23
costruiscono 23
definitiva 23
torni 23
sufficientemente 23
rappresentato 23
dosi 23
esterna 23
alimentari 23
preoccupazioni 23
registrare 23
pagati 23
tossici 23
parlavo 23
arrabbiati 23
compromesso 23
minus@@ 23
riportare 23
aspetter@@ 23
riparare 23
essiva 23
riusc@@ 23
arrivavano 23
viaggia 23
sanguigno 23
recl@@ 23
coperto 23
imbarazzo 23
Direi 23
concentrare 23
Siccome 23
proce@@ 23
complic@@ 23
dedicata 23
sotter@@ 23
genetici 23
dazione 23
terreni 23
diff@@ 23
contempo 23
branco 23
averla 23
olarità 23
suggerire 23
definita 23
piazz@@ 23
camp@@ 23
casino 23
dividere 23
colla 23
pesa 23
grammi 23
ottimista 23
brutte 23
menzionato 23
scatole 23
espresso 23
utiamo 23
egue 23
Signor 23
quotidi@@ 23
mater@@ 23
ducendo 23
gibile 23
astiche 23
fibra 23
teschio 23
scattare 23
convincer@@ 23
protagon@@ 23
passò 23
gioi@@ 23
cassa 23
compiuto 23
granché 23
pillola 23
penet@@ 23
Mezzo 23
satelliti 23
fiss@@ 23
dipingere 23
collezione 23
comand@@ 23
ppa 23
celo 23
operativi 23
altitudine 23
conosciuti 23
ottobre 23
entrò 23
infelice 23
palazzi 23
frutta 23
modifica 23
bloccato 23
universitario 23
rinnovabile 23
giusti 23
rico 23
raccontano 23
replicare 23
doti 23
peccato 23
numerosi 23
oscuro 23
pazz@@ 23
catastrofe 23
biosfera 23
Avere 23
diminuzione 23
itario 23
violino 23
tastiera 23
compos@@ 23
scopriamo 23
preval@@ 23
saltato 23
concorrenza 23
finanziare 23
carboidrati 23
dottor@@ 23
atela 23
avviare 23
ambientalista 23
giovan@@ 23
Lasci@@ 23
cardiaco 23
risal@@ 23
casse 23
purtroppo 23
scesi 23
ologiche 23
riuscissimo 23
minacce 23
proveni@@ 23
Oltre 23
riforme 23
Eccola 23
irmi 23
separare 23
utato 23
galleria 23
misteri 23
indipendenza 23
unisce 23
etn@@ 23
pecore 23
rall@@ 23
eschi 23
camm@@ 23
occorre 23
metterli 23
produttiva 23
abiti 23
Farò 23
trasformata 23
adulta 23
diarrea 23
cresta 23
veniamo 23
psic@@ 23
conoscevo 23
impariamo 23
ettero 23
liberali 23
élite 23
rosse 23
figlie 23
Dicono 23
fondale 23
climatica 23
spezzone 23
affronta 23
sentimento 23
gemelli 23
narrativa 23
posi 23
limitate 23
Lattea 23
punte 23
lontane 23
britannico 23
azzur@@ 23
acul@@ 23
geco 23
nonni 23
ambasci@@ 23
giocol@@ 23
sigarette 23
sequoie 23
Intervistatore 23
nuotata 23
roulotte 23
Tausend 22
Kommentare 22
öst@@ 22
how 22
ultim@@ 22
ols 22
rän@@ 22
Marken@@ 22
befasst 22
nan@@ 22
gewün@@ 22
Frieden@@ 22
cole 22
ennen 22
eingenommen 22
Mais@@ 22
generieren 22
angeg@@ 22
züchten 22
Nicht@@ 22
Begriffe 22
immateri@@ 22
institution@@ 22
titel 22
Erbe 22
dehnt 22
Mögliche 22
anziehen 22
konkur@@ 22
hirt 22
gelandet 22
Vietnam@@ 22
Wahn@@ 22
schnei@@ 22
flüge 22
sprung 22
Laut 22
Betrag 22
chs@@ 22
wettbewer@@ 22
hau@@ 22
ruhi@@ 22
filtern 22
Zuschau@@ 22
synth@@ 22
biologischer 22
anstec@@ 22
kend 22
brennen 22
Grundlagen 22
Enzy@@ 22
jenigen 22
Computers 22
leitungen 22
Visionen 22
preis@@ 22
kti@@ 22
ziges 22
Treff@@ 22
Erfüllung 22
94 22
Poli@@ 22
bens 22
hilfreich 22
Nämlich 22
nör@@ 22
verantwort@@ 22
effiziente 22
kunfts@@ 22
Kilometern 22
BO@@ 22
gert 22
einrichtungen 22
Spazi@@ 22
Stir@@ 22
Metall@@ 22
exter@@ 22
kühlen 22
Lebensstil 22
Saf@@ 22
trugen 22
kognitiven 22
herstellung 22
Verhaltensweisen 22
Hunger@@ 22
bewahrt 22
Einzige 22
Alters 22
Bomben 22
ermutigen 22
Schlacht@@ 22
Auschwitz 22
lager 22
Nancy 22
Ausbruch 22
leitet 22
Berichte 22
strecken 22
tors 22
gänzlich 22
gedauert 22
gewis@@ 22
historischen 22
verschaffen 22
improv@@ 22
gelten 22
sitze 22
äser 22
wach 22
starkes 22
generiert 22
54 22
koll@@ 22
plikationen 22
va@@ 22
kum 22
einnehmen 22
Rut@@ 22
lev@@ 22
Fahrer 22
pad@@ 22
aufmerksam 22
PA 22
Schalter 22
Immunsystem 22
Schlä@@ 22
haupt 22
fossilen 22
kugel 22
Nebel 22
schwei@@ 22
ühlen 22
Hut 22
Defin@@ 22
probe 22
einzelnes 22
strec@@ 22
Haushalt 22
Schnec@@ 22
Stanley 22
komplizierter 22
Dek@@ 22
Dauer 22
DDT 22
sive 22
bemer@@ 22
Rag@@ 22
80ern 22
inn 22
serviert 22
gül@@ 22
stur@@ 22
Gau@@ 22
Experte 22
verlangsamt 22
unglücklich 22
Ehemann 22
Lächeln 22
verschwand 22
Erklärungen 22
UF@@ 22
mungs@@ 22
wies 22
anfingen 22
rückwärts 22
Wit@@ 22
ungewöhnliche 22
effektiver 22
Bestes 22
drängt 22
immen@@ 22
Instrum@@ 22
ebung 22
Weisen 22
geist@@ 22
experimentieren 22
fem@@ 22
beherr@@ 22
Arbeitsplatz 22
Individu@@ 22
lab@@ 22
gewicht 22
grandi@@ 22
einbauen 22
Schachtel 22
Direc@@ 22
dend 22
risp@@ 22
ungsin@@ 22
Lav@@ 22
amerikan@@ 22
regionale 22
Ähn@@ 22
versagen 22
theorie 22
Hypothese 22
Kindersitze 22
Therapien 22
Är@@ 22
sichern 22
-Test 22
Jersey 22
Figuren 22
Zufälle 22
Student@@ 22
Gebilde 22
hn 22
Smo@@ 22
Galerie 22
wol@@ 22
Affe 22
sons 22
Leu@@ 22
schwim@@ 22
Schwä@@ 22
weswegen 22
athan 22
Aufr@@ 22
Minist@@ 22
Weltr@@ 22
Letzte 22
mart@@ 22
riechen 22
Disco@@ 22
Zo@@ 22
Indiana 22
terin 22
intelligenter 22
überraschende 22
feh@@ 22
vorlesen 22
Kab@@ 22
bewohner 22
typische 22
gewohnt 22
storgan@@ 22
bearbeiten 22
Community 22
sions@@ 22
kandi@@ 22
Google@@ 22
archie 22
Entscheidungs@@ 22
niedriger 22
Projekts 22
adig@@ 22
Rechenleistung 22
esche 22
Nervenzellen 22
eingebettet 22
Meister@@ 22
gemein 22
Vorhersage 22
digungen 22
Kategorien 22
woraus 22
herab@@ 22
guru 22
zustimmen 22
arbit@@ 22
anschließend 22
gewidmet 22
dau@@ 22
kreisen 22
Blick@@ 22
sichten 22
Karik@@ 22
Verrück@@ 22
Berat@@ 22
üblicherweise 22
master 22
alin 22
Trennung 22
essor 22
Ästhetik 22
Intelli@@ 22
dumme 22
Sir@@ 22
Herrn 22
gratu@@ 22
Schöpfung 22
Rest@@ 22
gehende 22
Gesetzen 22
Che@@ 22
dro@@ 22
wüssten 22
lautete 22
allgemein@@ 22
utine 22
Comic@@ 22
daneben 22
Tru@@ 22
ücher 22
Ganzes 22
tral@@ 22
eber@@ 22
87 22
oftmals 22
Colleg@@ 22
demonstriert 22
Wendepunkt 22
Edward 22
dokumentieren 22
drehung 22
weitaus 22
tigte 22
anfall 22
nos@@ 22
pflanzt 22
spende 22
auszur@@ 22
ügen 22
ecks 22
äten 22
schufen 22
tori@@ 22
junges 22
Friedens@@ 22
Gesundheitsversorgung 22
BI@@ 22
orit@@ 22
pessi@@ 22
schaffe 22
Teleskop@@ 22
Vagina-@@ 22
akten 22
Frauen@@ 22
verwirrt 22
akt 22
vorkommt 22
durchschnittlichen 22
Verlierer 22
Ann 22
blo@@ 22
Ego 22
Tal 22
Wi-Fi 22
südlich 22
erneu@@ 22
angemessen@@ 22
Tem@@ 22
amiken 22
angesichts 22
eden 22
angen@@ 22
Messer 22
Geräu@@ 22
Roy 22
filmen 22
denden 22
äußeren 22
Ökosystem@@ 22
Proph@@ 22
ernten 22
aktivität 22
Raub@@ 22
Diana 22
Missi@@ 22
älteste 22
ermöglichte 22
Nas@@ 22
´@@ 22
räte 22
rien 22
Ozean@@ 22
Gewässer 22
pit@@ 22
efer 22
Coun@@ 22
nied@@ 22
Gramm@@ 22
Map@@ 22
möchtest 22
Transformation 22
ospit@@ 22
ungslos 22
wellen 22
intuiti@@ 22
ty 22
Titel@@ 22
hor@@ 22
kers 22
beherrschen 22
höchst 22
1984 22
einges@@ 22
ado 22
Route 22
Chirurg 22
80@@ 22
lett 22
64 22
Global 22
67 22
ausgesprochen 22
Völker 22
tox@@ 22
wald 22
fro@@ 22
ansi@@ 22
ye 22
Titanic 22
fresser 22
Tauch@@ 22
schlüsse 22
edo 22
Og@@ 22
Panik 22
normales 22
1957 22
Carolyn 22
1989 22
41 22
DARPA 22
schlägen 22
Märkten 22
Schweiz 22
ickte 22
außergewöhn@@ 22
ted@@ 22
pis@@ 22
epidemie 22
obsol@@ 22
Cooper 22
Jabbar 22
Stop 22
Brothers 22
DNA-Origami 22
Strang 22
Derek 22
Seni@@ 22
rufe 22
emergente 22
Frakt@@ 22
quadrat@@ 22
stop 22
Küchen@@ 22
fet@@ 22
Gary 22
LA 22
Koran 22
behin@@ 22
Premierminister 22
Dylan 22
Aristoteles 22
poch@@ 22
Jam@@ 22
LHC 22
manu@@ 22
reiten 22
Dinosauri@@ 22
1858 22
Clonie 22
Emmanuel 22
Stunts 22
untman 22
Kathryn 22
frequenz 22
permanente 22
web@@ 22
Rory 22
Dallas 22
pent@@ 22
Superman 22
gan 22
Donnell 22
forma@@ 22
ultraviol@@ 22
format@@ 22
yan 22
plica 22
boc@@ 22
JC 22
lent@@ 22
[...]
